0018
fffa
0025
002d
0004
ffec
0029
ffe3
ffea
0016
0015
fffa
0010
000d
ffff
002c
fffb
fff1
ffe8
ffdc
fff2
ffe1
ffd2
ffec
ffdc
0016
001a
ffea
fffd
ffef
ffe4
001c
0009
fff0
0020
0006
fffa
0018
ffed
ffd0
0022
0026
ffd4
0023
001a
fff8
0004
0010
0014
0011
ffec
002e
0022
fff8
fff9
0001
ffe5
ffe2
fff0
000b
ffd5
0029
002e
0001
000b
0017
0030
000f
fffd
001a
0000
fff9
fff2
ffde
fff4
0010
ffe2
fff8
fff2
000a
0007
001d
001a
fff2
ffec
0016
0019
fffa
0020
0013
0004
fff2
ffe7
fff0
ffe4
000f
ffcc
0014
0025
0011
fff3
fff5
001e
0018
ffe7
0021
ffef
fff1
fffb
0003
ffe9
fff2
ffed
0007
fff1
0004
0013
fff0
fff4
fff6
fff2
ffff
fff3
ffec
0005
0017
0000
fff4
0003
fffa
fff5
0015
ffd2
000f
0026
fffa
fff5
0007
ffee
000d
0022
fff8
0002
ffeb
0022
001a
0017
0019
0004
0005
000f
fffd
0017
000c
001c
001c
0016
ffef
001a
fff8
0013
fffd
ffd5
ffe4
ffdd
ffeb
ffed
ffe2
0007
000b
0017
fffe
fff2
fff8
fff1
ffe6
fff0
ffed
fff7
0010
ffef
ffe6
ffeb
0001
fff2
fff4
0003
000e
0017
0001
0008
0010
fffa
0007
000a
0014
0008
0012
ffec
ffe2
fffd
ffe6
ffee
ffe5
fff5
ffea
0012
0024
001c
002b
fffc
000d
0021
001c
ffec
0009
fff1
ffe8
ffe6
fff2
ffdb
ffdb
0019
0011
ffe6
ffec
ffeb
ffde
0016
0015
fffd
fffc
001a
001d
0007
ffdc
ffd9
ffff
fff5
ffe3
fff8
fff3
000a
000d
001b
0024
000b
000a
000b
0018
ffed
000a
ffe9
fff9
ffea
ffef
ffee
ffec
fff7
ffdf
fff5
ffe1
ffea
fffc
fffb
0006
ffe1
fff8
0008
fff9
fff5
ffd8
ffde
0009
0006
0002
0019
fffd
0006
fff7
000f
fff4
000f
0006
000f
0011
fff9
001b
001b
fffd
ffea
000e
0004
fff9
0003
fffb
0006
0015
0014
0012
000d
fffc
fffd
0007
0007
ffff
002e
0027
fffe
0012
0017
fffa
0020
ffff
fffc
ffec
fffb
0027
0005
0014
0010
0012
0004
0004
ffe5
fff4
000d
0009
0008
000a
0026
0004
fff9
0002
fff7
ffe9
000e
0010
0010
fff3
0002
fff9
0009
0018
0018
0015
0015
001f
0011
fffe
0014
0008
ffed
fff9
fffc
fff7
ffea
ffed
ffef
0003
0006
0010
0016
000a
000c
001e
0001
001a
0012
ffef
0009
0004
fffb
ffed
fff1
001f
ffec
0004
ffe2
000c
0018
0018
0004
001c
001b
0014
0012
0016
fff1
ffea
001a
fff2
fff7
ffff
0018
fffb
fff6
0003
001a
001f
001e
000e
0028
fff8
0016
000c
001e
0008
0004
000b
fffc
0004
fff0
0001
000f
0002
0013
000f
fff8
0007
000c
fffe
001e
ffff
000d
ffeb
000b
fffb
0008
0000
0013
fff3
001a
ffe5
001f
000c
ffea
0003
0024
fff3
ffea
000e
ffee
0014
0010
fff6
ffef
001b
fff5
0005
001f
0008
ffe8
ffd9
fffc
ffea
ffd4
fff0
0009
0015
000c
0006
ffe5
000f
fff5
fff7
fffa
000b
0011
0027
fff7
ffdf
000b
0015
ffea
fff7
0005
0016
0015
fffa
001b
000c
0007
0015
000b
0007
0010
001d
fff0
fffd
0014
fff4
fffb
0007
0010
fffc
ffee
0011
0000
ffde
ffe9
0029
0009
ffe0
0010
ffec
ffed
0018
000d
fffc
fffc
0009
0011
0003
000c
000c
fff4
001c
0004
0003
001b
0021
000b
001c
fff8
fff6
0017
0019
ffd9
001b
0019
0007
000e
fffc
001a
000b
ffec
0007
ffe6
fff6
fffe
ffe8
fff4
0010
fff4
ffff
fffc
ffec
ffed
0011
0021
ffec
fffd
0002
fff7
ffdc
001c
000e
fff2
fffd
0003
fff6
fffd
001a
ffdc
ffe6
000d
fff8
fff2
001a
ffff
fff1
fff8
fffc
0011
fffd
fff3
fff7
001f
ffff
0008
000b
fffd
0006
001e
fff3
0008
ffff
fffd
001a
0010
001d
0002
0002
fff1
ffff
ffe8
fff3
ffe3
fff3
0014
0006
001a
fff6
ffec
0002
0007
ffec
ffe2
fff7
0004
ffea
0007
fffa
fffb
fff3
ffed
fff8
0010
fff7
ffe0
fffd
0013
0015
0015
fff8
001b
ffff
0012
001f
000d
0004
ffe5
ffe1
ffdb
fff9
fffd
ffde
fff4
0019
fffb
0027
0011
0010
002c
0022
0012
0026
000f
fff8
ffde
000a
ffe1
fff3
0007
fff2
ffe4
fff4
fffe
fff3
0003
ffe6
ffe7
fff9
000d
ffea
0019
fffb
ffd9
fffb
ffe9
ffdd
000b
fff2
0000
fff5
0014
ffff
fffd
000b
0023
0015
fff6
0012
fff7
0003
fff3
ffea
0009
ffe5
ffe4
fff4
fff2
fffe
fffe
ffdf
ffe6
ffd6
ffe5
fff3
fffe
fff2
0015
fff1
0002
0016
ffe2
ffea
ffed
0003
ffe1
ffed
0016
fff3
000d
0004
001a
fffe
0010
000e
0006
0021
0008
fff2
fff4
ffef
fff7
fff7
ffef
0006
fff9
0019
fff3
fff6
000a
0009
0003
0002
fff0
ffe7
ffe5
000b
0019
003c
0008
001f
0023
fffe
ffe4
ffd3
ffff
0011
ffe6
fffd
fff8
000b
0005
0007
fffa
000d
001f
000c
ffe6
ffea
0001
000b
0000
0019
0019
ffea
ffe5
fffa
fff5
0009
fff7
ffe9
ffeb
fff2
0008
fff8
0007
ffe6
ffed
000a
000e
0015
0003
ffdc
ffe7
fff7
0002
ffed
001f
ffec
ffe1
000f
0011
0001
0018
0004
0014
001a
fffb
ffe3
0011
0020
001f
0007
ffde
0005
0002
ffe1
ffda
ffef
0014
0015
fffe
ffe9
ffe8
fffe
0011
0016
0004
0007
000b
0008
fffb
000c
0006
ffde
ffe9
fffa
0003
000e
fffb
ffee
fff2
0012
ffff
ffd8
001f
0020
0020
fff3
000b
0018
fff7
000d
ffda
000b
000f
0017
0009
fff4
fffb
0017
fff8
0021
0009
0000
0016
0015
ffeb
ffeb
001a
ffd3
fff1
fff7
fff9
0004
fff8
000a
0002
0012
fff9
ffe7
0010
fffd
fff5
fff7
0002
0007
0014
002e
000c
0017
0021
ffed
0010
ffe7
0007
000f
002e
0011
0010
0013
fff8
0016
000c
0004
0014
0017
000d
0000
0016
fff5
0019
fffa
ffe7
0023
ffee
fffa
0008
ffea
fffa
fff3
0017
fff1
0017
002e
0012
002c
001a
ffd4
001c
fff3
fffa
fffd
ffdb
ffe4
0002
000d
000b
000b
fffd
fff8
fff0
0009
001c
000f
001d
fffa
fff9
fffb
0002
000a
0015
fffe
fff1
fff7
fff5
0007
000f
fff5
fff1
0028
0004
0010
0011
ffd9
0018
ffff
ffe4
001c
ffd8
ffe3
ffee
fff2
fff8
fffc
0011
ffec
000e
0026
0006
002e
0028
ffeb
0012
ffe4
0008
000a
0014
001b
0014
000e
fff4
0019
fff5
0002
ffe6
0023
fff8
0000
0013
fff8
0020
0002
fff4
0019
0001
ffe9
0008
000b
fffb
fff3
000c
ffed
0020
ffdb
fff7
ffed
ffdf
0003
ffee
ffd5
0007
0016
0009
ffec
0012
ffce
ffe8
fff0
fff0
ffff
000b
0011
ffff
000e
0017
0019
0019
fffe
0012
fff4
000c
0012
0013
0016
0021
ffff
001e
ffed
0011
0022
0016
001d
0031
0026
000b
000d
fffb
000e
000a
ffee
fffb
ffdb
ffd9
fffd
ffe7
ffec
0012
0010
000a
0019
002b
0019
fff6
0015
0004
0029
fffc
ffef
fff2
ffca
ffd7
fff2
ffd7
ffeb
0008
fffa
fff6
fff0
000b
0024
0012
000e
0017
0002
0017
0006
0005
0007
0000
fffb
001b
fffa
0008
002e
0010
0007
000e
001d
ffff
000c
0015
0018
ffe9
0003
001a
ffd4
fff5
fff6
ffe4
0001
0010
fffc
0005
fffe
000b
002c
fffb
0009
0011
fffd
0011
000a
0010
001c
ffff
0014
0018
000c
0001
0004
000f
fff5
001e
0017
001a
0034
0026
0031
0001
001f
0026
0009
fff7
fff9
ffef
fffb
ffd6
000f
000c
fffc
ffe6
fffa
fff3
ffeb
fffb
0010
001a
fff4
0010
fff1
fff0
0009
fff4
ffe9
0008
fff5
fff6
0015
000d
000c
0002
001a
0017
0021
fff9
ffdf
001e
fffd
fff5
000c
0007
0018
002f
0003
ffdd
0015
ffff
0020
fffe
001a
0002
ffea
0006
000b
0018
000e
ffff
0009
0003
fffa
001d
ffde
ffd0
0015
fff4
0008
0009
000f
0010
ffdb
0007
0010
0003
ffdd
ffff
fff6
fff8
0002
0015
0004
ffe4
0024
001b
0013
fffc
0004
0024
0031
0020
ffdf
0020
001b
0023
0018
0019
000c
0032
fff3
ffec
fff9
0000
fff4
fff4
001c
fff4
ffec
001a
0012
0005
ffee
fffb
0002
000a
fff6
0013
ffe7
ffdf
001a
0004
fff4
000b
0017
ffff
001c
ffff
ffde
0022
0021
0021
0006
002c
000f
0009
000c
ffd3
fff0
fff8
000c
fffd
0001
fff0
001f
0004
000e
0019
fffa
0007
001b
001a
0001
0012
ffd7
ffed
0026
000b
000f
001c
0016
0028
0013
ffff
ffed
0012
0001
001a
001b
0018
0025
001e
001d
003d
0001
ffd5
0005
ffe8
ffd4
ffcf
0012
fff9
0017
0005
ffe5
000c
ffe3
ffe8
ffe0
0017
001f
0024
fff2
ffd3
fff4
fffa
ffe9
ffda
fffe
fff6
000a
0016
000f
0014
0025
0012
002e
0023
fff3
fffb
ffee
ffdc
ffef
fff1
ffde
0004
ffe9
ffe7
fff9
0018
0010
0022
0018
0018
001f
002a
0029
001e
0012
0018
0022
001d
ffe0
ffd0
000d
0023
002e
ffde
fff0
0004
fff7
ffe9
ffe3
002d
001d
0010
fff6
ffe6
fff5
0004
ffeb
ffe9
ffe8
fffc
ffee
0002
0010
fffd
002d
000d
001e
001e
fffb
0003
0002
0003
ffff
ffee
ffdf
0001
001a
0020
002f
ffe6
ffe6
001f
fff4
ffd2
ffe5
0001
000f
001a
0009
ffdc
ffea
0011
ffd6
ffd1
ffee
0000
fff7
000a
ffed
ffe9
0000
ffe5
0005
fff5
ffdd
ffeb
0003
0007
ffee
fff8
0015
ffee
fff2
fff0
0001
fffa
fff5
0012
ffef
0019
fff7
001a
002f
001b
0010
ffec
0007
ffd9
fff2
0014
001c
0009
fffb
000b
fff5
0010
ffe4
ffea
ffed
0022
0015
0004
ffff
ffed
000d
0000
ffed
0009
ffee
fffe
ffe7
fffb
0019
0015
0004
0016
001c
0012
0017
000b
001c
0011
fff5
fff5
ffeb
0011
ffd8
fff5
fffd
fffc
0006
fff6
000d
0012
fff0
0028
0030
0022
fffe
0017
0005
ffef
0008
0016
0015
0000
001d
ffed
0010
001c
0008
000c
0014
0015
000d
0024
000d
0017
0003
000c
000b
fff8
000b
ffec
fff4
ffe9
0009
fff2
fff7
fffc
000a
fff4
000f
000e
0015
0004
0005
fff3
fff4
000e
0006
002d
000c
fffa
0014
0000
000d
ffee
0005
fffc
000b
000c
ffec
0007
0003
000a
0008
0017
000d
000f
0019
000c
ffea
fffe
ffe9
0002
0000
0012
0007
0012
ffdd
ffe5
fff3
ffe5
fff2
000c
fff7
fffd
0019
fffd
ffec
0000
0000
ffe7
0004
0008
0005
0010
0006
002a
0018
000b
002a
0012
000e
0015
ffe6
0002
0012
0018
000d
001e
0014
0017
0000
0015
0020
0013
001e
fffb
0013
0005
0002
0010
0012
fff6
ffe9
ffed
fff1
fff7
ffeb
0026
0011
ffe3
0020
0011
fff4
001c
ffff
0004
000d
000a
0016
ffe4
ffec
fff7
ffee
ffe8
fffd
fff3
fff1
fff1
fff0
0000
001e
0018
0000
0008
0014
0001
0000
0006
000b
000e
0013
0021
001d
001a
000e
fff3
000f
fffe
0012
0017
0007
fff9
0010
0010
001c
ffef
fffe
fff9
ffe6
ffeb
000a
fff2
001c
fff7
0009
0013
000b
0013
0010
fff6
0002
0000
0003
0017
001d
0004
0017
0003
0020
fffa
0003
000f
0014
0006
fff5
0006
0024
fff6
0022
0023
000e
0006
0019
0011
000e
0014
fff6
0005
0008
ffde
0004
fffa
ffeb
fff5
fff3
fff4
fff4
0010
0014
fffd
fff7
0006
ffe6
ffe8
fffd
001a
fff8
000e
ffdf
fff6
0011
001f
0025
0038
fffe
fffd
001f
fff1
0001
0008
0010
001d
000b
fff2
ffda
fffa
fff5
ffff
0005
000d
0000
0003
000f
fff2
0002
0013
0017
000a
ffe4
fffd
fff6
fff8
0003
000d
ffe7
fff1
0024
0003
002f
001a
fff2
000e
0006
0014
000d
ffe4
ffe9
fffe
ffed
0005
fffc
0011
fffc
ffeb
0009
0017
0011
0028
ffea
fffb
0008
ffed
0001
0000
fffc
0000
0002
ffef
fff8
fffd
0001
fffe
0019
fffd
fff8
0023
0012
0016
fffb
0009
001a
0004
ffee
ffe4
0008
0008
fffe
0006
0008
fffe
0018
0007
0007
002b
0006
ffee
001e
ffe9
fff6
000e
ffef
000f
0028
fff1
ffe5
0001
fff9
ffef
fffa
fff8
0012
001c
0012
fffa
0005
000c
fffd
ffff
000d
0011
0006
fff1
fffe
ffe2
0015
000b
ffe6
ffff
fff3
fffc
0018
fff9
001e
0003
fffa
fffe
000a
ffff
000d
000a
0003
fffb
0003
ffe6
ffff
fff6
000c
000d
0001
000a
0015
ffe2
ffef
0020
fff5
fffc
0025
000a
ffeb
0012
ffe6
fff3
0009
fff4
fffc
0004
fff6
ffea
fffe
000e
000c
0017
fff6
000b
ffed
000b
fffc
0003
0000
ffe8
002d
ffe1
001a
0030
fffe
fff4
0008
fffb
0013
ffe0
0022
ffed
ffee
0021
0000
0020
000e
000b
fff5
fff9
ffe5
0011
ffec
0007
0019
ffe4
ffde
001e
ffed
0018
000f
0014
fffc
000c
fff1
ffd4
0024
ffdb
ffff
0012
0012
0010
fff9
001a
0008
ffeb
0012
000f
0010
0005
0008
0017
0015
fffc
000d
fffd
001a
0012
0001
001c
002a
0006
000e
000b
fff1
fff7
001a
000d
ffeb
0001
fff1
ffce
0016
ffeb
fffa
000e
fffc
fff1
0022
fffd
000f
001b
0010
fff5
fffc
0008
ffec
0005
001b
0016
ffed
000c
fffa
fffe
0011
0003
fff7
0012
0010
fff6
001c
000f
fff4
0001
0013
0009
ffe7
fff0
ffdd
fff2
ffe2
0009
0004
0004
0022
ffc9
0001
0006
ffdd
ffed
0004
ffdf
000d
000b
ffe7
ffdf
0010
ffe6
000e
0008
001b
ffff
000c
0026
0018
fffe
000a
0012
000d
fff5
0008
0000
ffed
ffef
0002
ffd5
fff1
001b
000f
fff5
fffe
0011
000e
fff2
001f
0019
ffed
001f
000d
fff8
ffe4
fffc
0010
ffeb
ffdc
0017
0002
0000
0012
ffd7
ffe7
000d
ffd2
0011
fff8
0008
ffec
0007
ffd6
ffe4
001c
ffee
ffdb
000c
0019
fffb
0007
001e
0003
fff4
0016
fffe
ffed
fff7
fff4
0008
ffe9
fff3
0004
ffd6
0002
000b
0003
0027
0009
ffde
ffe2
0021
ffeb
ffde
0017
ffff
fff4
0025
fff2
ffe8
fff9
ffdf
ffdf
0019
0003
ffe5
0017
0015
fff4
0014
fffc
000b
0013
ffde
fff7
fffc
0004
0000
ffe1
0007
0005
ffe7
0006
000a
000c
0007
0009
0011
0011
fffb
fff6
0022
0004
001b
0006
ffed
ffe6
fff9
ffee
0000
0012
ffee
0007
ffe8
fff2
0022
ffe7
ffff
001e
000b
0012
0024
ffec
ffff
000a
fffb
fff7
0030
fff3
000f
fffb
0012
0014
001f
fff3
001b
fff2
fff8
000d
0014
ffe9
ffe2
0012
fff8
001b
0031
fffe
ffea
ffe5
001c
fffc
fff2
fff3
fff5
fff0
0001
0011
0014
fffe
fffd
000d
fffd
000a
0025
ffec
0002
001a
ffee
0005
0030
fff9
fff0
001a
0015
0012
0009
fff9
ffe4
000a
fffe
ffe0
0029
ffed
0013
0012
0012
000f
0001
fff8
fffb
ffe8
0019
fff8
000b
ffeb
0005
ffff
ffe6
fff9
0006
000d
0004
002a
ffe3
000a
0024
ffe0
0008
0028
ffef
fffe
0019
0005
0000
fff5
ffdc
ffe4
0007
fffe
fff7
0022
fff3
ffef
0003
fff2
001d
0014
0001
0006
000b
ffdb
000b
0028
0004
fff7
fffe
fff4
0018
0003
fffc
fff9
0023
000e
fffd
fff9
fffc
0000
ffec
0018
0025
000c
000b
fffd
0003
001b
ffec
ffe1
0011
ffed
fffd
001c
0002
001e
0009
fffb
ffd4
002c
001e
001a
0000
fffb
0032
ffec
fff0
001d
ffdb
ffea
0017
000a
fffe
fff7
0020
0023
ffdd
001b
ffee
ffe0
001d
fff5
0009
ffe8
fff2
0025
ffdd
ffee
0010
0003
ffed
fff9
0016
0000
0012
000b
0011
ffee
0030
0028
001b
0016
ffe9
ffde
0017
0018
0004
001d
000e
001a
ffff
001b
ffe4
0026
001e
fff7
002e
0003
0003
fff6
fff4
0021
fffe
fff1
001a
fff7
0019
0005
0018
001b
fff0
0021
0000
ffe8
fff3
fff5
fffc
000c
fff5
0000
0029
001e
000b
001b
001f
0014
002e
000e
0000
000e
002c
0007
002e
fff5
fff7
000d
fff3
0013
0011
fff4
0020
000e
ffe6
ffff
0023
fff3
0012
fffe
fffc
0006
fffd
0004
0012
0006
000d
001c
0005
0002
0020
0014
0003
0002
fff9
fff9
ffd0
ffeb
fff5
0008
fff9
fff6
ffe5
fff7
fff4
ffff
001a
ffe5
ffe2
0008
fff7
ffd0
ffff
fffc
ffeb
0019
ffee
ffe4
002c
fffa
ffe0
0016
0009
0019
0010
fff4
0023
0009
fffe
0026
0009
001d
ffde
002d
0019
ffd5
0007
ffeb
ffd4
0016
0014
0012
000f
000a
000f
ffe4
0012
0009
0009
fff5
fff6
0011
0002
0004
0020
fff2
ffd3
fff8
ffe7
fff7
fff7
ffe1
ffea
0028
fff4
ffcd
0000
0011
0012
0015
001e
ffce
002f
fff8
ffd0
0020
0003
001d
fff6
0016
0026
0009
001b
0008
0001
0008
ffef
000e
0005
ffed
000b
fffe
ffda
ffec
fffb
fffa
000c
fff3
ffd5
0007
000a
ffcc
0014
0018
0012
0008
0000
ffd7
0028
fffb
ffcc
0008
001e
0008
0019
000a
fff8
fffc
fff8
000f
001e
0003
ffda
0019
0001
ffed
0014
fffe
ffe8
0023
fffb
0003
001e
0015
0018
0019
0019
0009
fffb
ffeb
ffea
fff2
ffe3
fff9
fff0
0018
0024
ffe1
fff2
0021
ffc6
ffe3
000f
ffda
000c
0030
ffe9
fff0
ffef
ffe6
ffe0
fffc
fffb
0008
0015
001c
0011
0014
0011
000d
000a
0011
ffff
fffd
ffd9
ffdc
ffff
fff4
ffd9
0016
ffe1
001a
002a
0009
0020
ffde
001b
0025
0007
0012
fff8
fffd
0006
ffdc
0009
ffe7
ffef
fffe
0003
ffe2
fff3
ffdc
ffd2
0008
ffe8
ffd5
0008
ffe1
fffb
0000
ffe5
ffd9
000d
fff3
ffec
0012
ffe6
ffe6
0029
0005
0016
ffe4
0000
0013
fff9
0013
001b
000a
0006
ffec
0004
fff5
ffeb
0008
ffe8
0016
0014
fff1
fff0
001a
ffe6
ffdd
000a
ffe7
ffe7
0023
0003
ffd2
0007
fffa
ffe1
000e
fff5
ffe4
0029
0000
fff2
fff5
0016
0008
000a
0007
0011
ffff
fffd
fff1
0022
ffef
0005
002a
fffd
ffff
000d
0006
000a
0027
fff8
fff8
0004
0013
000b
001d
fff2
0011
001a
fff5
fff5
fffe
fffb
fffc
0004
ffff
fff5
ffd1
0007
fffe
ffeb
0003
0000
ffdb
001a
0011
ffe4
000b
0021
ffe5
ffff
0013
ffe1
0004
0006
001f
fffe
ffe1
0010
000f
ffe8
0007
0027
0017
ffff
0005
0008
ffe5
0016
0012
ffd5
fff4
ffda
0031
ffef
fff9
0013
fff4
ffe8
001a
0014
0002
fffd
0004
0013
fffd
0025
000b
0008
0025
000c
fff5
0028
0011
ffe0
001d
000a
0002
000d
002d
ffe3
001d
0005
fff1
0022
0000
fff7
0006
000d
0031
0000
0008
0023
ffe8
000e
0013
001c
0006
ffee
001c
ffed
fff0
0015
fffb
fff5
fff7
000a
ffff
0023
fff5
ffee
001a
0028
ffd9
0002
000b
fff8
0005
0001
000e
0004
001b
fffc
0010
fffa
002b
0015
0012
000a
0016
fff1
001e
fffe
fff2
fffc
ffe7
0001
0003
fff1
0006
0009
0005
0000
0014
0003
000f
000a
fffd
000f
0002
0009
0020
0000
ffff
0014
ffff
0018
0009
0000
0011
000d
0011
000c
0006
ffe2
0017
0017
ffe9
0026
0004
000c
001b
0015
ffed
0020
002d
fff1
fff7
000e
0003
ffe8
fff8
0003
fffa
ffea
fff5
0018
0022
000d
0015
001b
ffdf
0022
002a
ffff
ffe3
000b
fffa
ffe5
fff9
fff2
ffe2
ffe0
0008
0011
0017
fff6
0027
0013
0007
002b
fffe
fff1
0027
0022
ffe3
0014
0007
0000
0027
0029
0006
0012
0028
fff1
0018
0011
ffdf
0012
001d
fffe
fff0
fffe
000c
ffed
000d
fff4
fffe
ffe9
fff1
0004
0015
000b
0014
0015
ffe9
001f
001c
ffee
0006
0013
fff3
0007
fffd
fff7
001c
0017
ffee
0030
0005
0009
0014
0017
0001
0014
0017
0018
fffe
0013
fffd
0002
0017
0004
fff2
001a
fff9
001a
ffeb
0016
fffd
ffe3
fff0
fff2
ffee
0004
0017
0005
001b
0006
fff1
ffeb
000b
fff9
0007
ffef
001c
ffe6
0003
002d
0023
0014
fff4
ffea
fffe
0024
ffe1
001a
0025
000e
fff9
0002
ffee
001b
0015
fffc
0025
0020
0011
0006
000d
ffee
0006
0007
fff3
0004
0006
ffe5
fff1
0010
fff9
0005
0019
ffdd
0024
000f
fffd
001d
fff1
ffea
0001
ffe6
0019
ffe1
ffe2
ffe5
0008
0009
fff6
000f
0012
0019
000f
0003
0014
0000
0009
fffb
0026
001a
ffe6
000d
0028
fffc
fff8
fff2
ffdb
ffed
001d
fff6
0019
0024
fffb
0020
001d
ffdc
0012
ffed
001b
fff4
fffa
fff6
0004
ffff
ffed
000a
0026
ffdd
0007
0006
0009
0014
0007
fff2
000a
0027
0000
0004
0012
fff8
000a
fffb
fff3
ffea
0018
0000
ffef
0004
ffeb
0019
000a
ffea
0017
001c
ffe7
000c
0000
0003
000c
fff8
ffe1
0011
fffd
0012
000a
0013
0020
fffe
000f
0004
fffe
0001
0018
fff9
000b
001b
0017
0006
0025
ffde
ffdd
fffb
fff1
ffe7
ffe7
001e
ffe8
ffe8
0001
ffdb
ffda
ffe7
000b
fffa
0000
fff7
ffd8
fff0
ffe7
ffe1
000e
fff0
ffeb
fff8
0000
fff0
fff4
0017
0026
fff9
0013
000d
0005
0011
000f
001c
0002
ffe3
fff4
ffe2
fffa
fff6
ffe7
ffe0
ffeb
ffff
002f
0017
001f
000b
fffc
0006
0013
fff7
0005
ffe5
fffe
000e
0000
0015
fff0
fff3
fff8
fffc
ffee
ffed
ffde
fff5
000e
fff4
ffef
0020
0009
ffdd
0005
0003
ffdb
fff4
0011
fff2
000a
0004
001a
0018
0004
0009
fff3
0007
0020
ffef
ffe8
0004
fff5
ffe9
0000
fff2
000b
ffd7
0009
fff5
fff1
fff6
fff8
ffe9
ffee
ffe3
ffe9
fff6
0010
ffe4
fff7
ffe7
fff1
000b
fffa
fff2
0007
fffc
001b
000a
0013
0009
001a
0015
0014
0029
fffe
ffe6
0017
000b
000e
0004
0008
0004
0011
001c
fff4
0004
0003
000f
fffa
fffd
000f
ffe8
fff0
ffe3
ffff
ffed
ffd9
ffea
fff8
fff3
fff1
000b
0017
fffa
ffe5
0023
ffe0
fffa
0007
000e
ffe5
0024
ffe9
ffe5
fffc
ffdd
ffe7
0003
0010
001f
fff8
001b
fff8
fffb
000a
0000
000c
0025
000b
0001
0000
fff9
fff7
0003
fffa
0014
000a
0004
ffe4
000c
0019
fff3
0013
fffd
ffee
0001
ffed
0013
fff8
ffe4
0013
002f
fff2
ffe6
ffdd
ffe8
000f
0018
ffdd
001a
0007
fffc
001d
0015
fff2
000b
000a
0006
001c
0001
ffea
ffed
001e
001d
000a
fffe
0012
ffff
0011
0010
ffee
0013
0000
fff6
001f
0014
0000
000b
ffe2
fff0
0000
ffea
0022
001c
ffed
fff7
0018
0013
fffc
0004
ffe0
0013
0002
fffa
0003
fffd
ffe8
ffe9
0020
0015
0005
0005
fffe
0014
0001
ffeb
0014
