fff3
ffb0
0023
0054
ffc7
ffb4
0080
0094
0008
0021
ffbd
0002
001f
ffd7
ff83
ffc7
0027
ffff
0017
0005
ffe7
005d
0062
0030
ffcb
0005
0025
ffeb
ffd0
0011
ffb6
ff4a
ffee
0042
ffe4
0001
0001
fffd
0050
000a
ff9b
ffff
0056
001f
fffb
ffc4
ffb1
ff8d
fff9
ffe2
fff4
0031
0029
0032
ffd7
ffbb
ffac
0027
0029
0001
fffe
0006
0017
0028
0023
ffc6
0002
005b
0028
ffa2
ffe8
0027
001b
ffdb
ffff
fffa
ffe1
ffef
002e
ffcc
0012
0072
fffd
ffcd
006e
fff7
0010
004d
ffe9
0009
ffb6
0023
ffcc
ffcf
fff3
ffb9
ffe8
0012
ffb3
0013
ffeb
000f
0020
fff2
0008
000f
001a
0002
001c
fffc
000e
ffef
ffeb
0001
ffe8
fff7
000c
fff1
002a
fff9
ffdb
000c
0000
ffc8
0012
fff4
ffcd
003b
ffe4
ffe0
001e
ffc8
ffbc
003f
fff5
fffa
0018
ffd5
001c
0040
ffe7
0013
0040
ffe1
fff4
0003
ffc5
000a
ffd8
ffca
0002
ffb5
ffa7
fff1
0004
0066
ffc8
0040
006a
0005
0058
0026
ffe8
ffdd
0051
fff7
0017
0031
fffe
003d
0037
0036
002d
ffea
0028
0038
ffdf
0022
fff7
ffac
0035
0007
ffed
003c
003b
ffc4
003d
ffed
ffc5
004e
0001
ffa9
0018
ffc0
ffd6
ffdb
ffac
fff1
0037
ffce
0007
001a
ffd9
002c
ffbe
000c
003d
ffed
ffef
0044
ffbf
0000
005a
ffbf
0029
0046
ffec
ffd3
004a
0015
ffca
0000
0025
ffd7
ffef
002c
ff7a
ffe1
0022
ffc8
0004
0017
ffe1
ffb5
0058
0029
ffa1
001f
0035
001c
0015
0055
000e
ffd7
fff9
003b
ffe5
ffd0
000c
ffd7
ff39
ffd5
ffd2
000d
006e
fffa
ffd5
0020
0010
ff68
ffe3
fff5
0055
fff2
ffd1
ffe8
ffcb
ffc0
ffab
0026
0067
001d
ffbc
0017
ffde
0011
ffdd
0034
0010
004e
0051
ffd0
0044
0087
fff6
ffda
002b
000e
ffb4
0014
0009
ff97
000a
fffe
ff9e
002f
ffea
ffe2
ffc5
002d
ffe0
0034
0039
ffa6
003f
001e
005c
002a
fff0
0045
ffc9
ffe6
0031
ffb5
ffe1
ffd4
0027
0009
0000
fffe
ffed
fff6
0012
ffee
ffa1
0014
fff7
ffb4
000e
ffdb
ff6c
0001
ffd7
004c
0019
fffa
0045
001c
0040
0024
fffb
001e
0047
0003
001a
003a
ffd9
0020
0057
ffd8
ffee
0040
001c
0005
0062
fff1
0005
0064
ffb5
001c
ffd7
fff8
fffe
ffe4
ffe5
0021
fff7
002b
0035
ffdc
0031
0013
0030
0007
0014
ffc9
ff9c
0017
ffd5
000a
fff9
0040
003d
fff7
0019
0014
0019
ffe9
000e
0009
ffde
ffea
002f
001a
003b
001e
fffb
ffea
ffe7
fffa
ffd7
ffe2
ffe4
000d
0011
0015
0004
0050
ffec
0049
0042
0034
0073
0022
fffb
0028
001e
0013
004a
000a
004a
004f
fffd
ffd7
ffea
fff8
fffc
001c
0018
000b
ffca
ffd1
001e
0024
002d
ffcd
ffc2
ffcc
ffdb
ffbb
0005
ff72
ffe8
0055
fff5
002e
002a
004c
fffb
ffab
ffe2
ff6f
ffdd
0031
0044
0017
009e
00b9
005b
0010
0016
001b
ffe5
ffed
ffe0
ffd8
ffb1
0003
002a
001b
0022
000e
000b
ffee
ffe7
fff4
0000
0037
ffd9
ffd2
ffee
ff64
0013
0025
005a
005a
0007
ff64
ffcc
ffac
ffe5
0013
0050
0059
0029
ffe4
ff67
ffe6
000b
fff1
fff8
004c
0039
0016
0015
ffe2
fffa
002d
0014
0015
000d
000d
0028
0029
0024
0009
ffef
0013
fff7
fffd
000c
ffd3
ffe6
002e
ffaa
ffe2
0006
ff7d
ffc8
0006
ff7d
0010
000b
004a
001f
fff3
0022
002b
001d
0030
001b
ffd6
0010
002d
0000
001a
ffff
0000
001c
ffc7
ffed
0032
ffcd
0000
0028
ffcf
0015
003e
ffaa
0015
fffc
ffa5
fff2
ffe7
ffbe
fffb
ffec
ffce
0012
fff0
fff9
fff5
ffe6
ffd0
001f
ffd5
0037
001b
0025
002c
0001
0002
000c
fff9
ffea
ffdd
ff99
0002
fff1
fff0
0002
0041
0037
ffc9
fff7
000b
0012
fff0
ffdb
fff0
ffec
0057
0008
0015
002d
001e
000f
0022
0015
0028
ffe7
fffd
ffef
0010
002b
002f
001f
003f
0013
000f
003a
002a
fffa
0023
0001
ffd0
ffa7
ffb3
ffef
ffd0
0009
fffd
ffd7
ffbf
ffdb
ffbd
ffc6
0010
0001
000a
ffcc
ff9e
ffaf
ffb5
ffd1
ffea
0035
000d
0001
fff9
003c
ffee
ffd2
001d
0029
ffe7
fff3
003c
0029
002f
000f
0006
0037
0032
0023
001b
ffd5
0023
ffc5
ffda
0017
ffbe
ffd1
002e
0006
0021
0002
001c
0021
ffe1
0012
0020
ffb9
0026
fff8
fff0
0010
ffec
ffc9
002f
0019
ffcb
fffe
003c
004c
002f
ffe7
0006
0020
000d
ffad
001d
fffe
0036
0001
0006
0039
0013
ffe7
ffeb
001b
0003
001a
0016
0010
0062
0008
ffe8
0052
fff0
ffde
ffd7
ffcc
0035
fffb
0004
ffec
000a
0012
ffdf
000b
002a
001b
fff4
ffe3
0027
ffd8
0000
fff0
fff0
001b
002a
0038
0043
0036
004b
ffe8
ffdb
ffd5
fff4
000d
ffe2
0027
0013
0008
0010
ffce
ffe2
fff5
0012
fff8
0006
0013
ffef
0017
ffd0
ffd3
fff4
ffe8
0017
0030
000b
0041
0038
000e
ffde
fff4
0014
0012
002b
003f
0062
0031
0039
fff4
ffd4
0039
fff9
fffe
002e
001b
0005
0034
fffe
fff8
004c
0042
000f
fff7
0003
0016
0031
0020
ffef
ffd4
ffdc
0010
ffdc
0003
002f
0007
004d
0037
ffa2
ffea
ffe9
003d
001d
001f
000d
ffe1
0003
fff5
fff8
0045
0008
001a
0033
001b
fffe
fff1
001a
0014
000d
fff1
0032
0030
ffcd
001e
002c
ffbb
0000
0024
ffbf
ffae
ffe7
ffc6
0038
0059
ff94
ffc0
fffa
ffda
ffa9
000a
ffd4
0023
fff2
ffb1
ff71
ffa0
0032
ffa4
ffcd
ffde
fff0
ffe9
ffed
fffc
0004
000e
fff7
ffea
0011
ffff
ffaf
ffd9
ffbb
0005
ff58
ffd0
0012
0031
003b
fff8
002b
fff0
ffb7
ffe4
000d
0035
0011
0011
0029
002b
0022
002d
0033
001a
0019
fff8
0010
0034
0022
0019
0015
0032
0032
0003
0027
000f
0051
0038
0002
0013
0053
ff9e
ff7d
002c
0024
0037
0033
0001
ffab
0002
ff96
ffcb
0015
000d
ffbd
0018
ffb0
ff7d
ffd1
ff9c
ffc9
ffe3
ffba
ffdf
004c
0016
fff4
003c
004a
0011
fff8
ffb6
ffaf
0003
ffd5
0002
ffbd
0003
000b
0049
0044
002d
000e
0026
0042
ffa6
ffd3
000f
ffc7
ff84
fffd
ffd7
fff1
ffeb
002a
0017
002b
ffec
ffba
000c
fffc
ffee
ffdb
004e
0032
001d
ffce
fffe
0003
000b
0056
003c
0019
ffdc
0040
ffe9
002b
002e
0037
0041
003b
ffd4
ffea
0024
0021
000a
0016
ffd4
ffe0
0010
ff8f
ff7e
ffd0
fffe
ffef
fffc
0006
ffcb
ffde
001b
002d
ffeb
ffc4
0067
000c
0002
004f
0015
0000
ffe7
0021
ffd0
0020
ffec
003f
001a
000b
0014
0006
ffda
fff5
ffee
001f
ffff
fffd
fffb
0018
0036
0005
ffe9
ffdb
ffef
ffec
0009
ffd1
000e
0025
fff9
004d
ffdc
0056
0009
0013
0061
0030
0045
003b
ffdc
000d
0012
ffff
0051
0007
003e
003d
0008
ffcd
fff7
fff5
ffea
0032
0020
ffdd
ffdc
000a
001f
0006
ffc0
0030
0008
0011
0009
ffee
ffef
001d
0005
fff1
ffdf
0026
000a
fff7
0031
0008
0022
0025
0006
0006
0019
fffe
0016
0021
ffdb
ffeb
ffeb
ffee
001d
fff8
0007
002b
fff0
0015
001a
ffd9
ffd0
0007
fffc
ffec
0014
0002
ffef
0018
ffef
002e
0031
ffe3
0037
0007
fffc
0048
0029
000b
0009
0017
0014
0038
0015
0039
0038
ffe3
fff7
000b
ffe3
ffff
002f
ffcd
002f
0028
