005b
0064
0013
0069
0012
0037
fffc
0054
0069
ffe3
006c
0034
005e
002d
004f
0017
0065
0034
ffcb
001f
fff9
ffdb
ffc3
0063
ffa1
ffb9
0006
ffc2
fffc
ff8f
006a
ff9b
0058
0027
ffd9
0054
002a
0061
002b
0009
0036
000d
0046
0068
004e
0007
006a
0010
004e
ffb2
ff8d
ffda
ffa4
0074
002f
0038
0006
0012
0057
ff93
000b
ff9f
fff0
ffd8
001e
ffd2
005a
ffbe
ffa7
ffd9
006b
0034
