ffda
0013
fff1
0025
0041
0037
ffea
ffec
ffe1
002a
002f
ffdd
ffc4
ffe8
0002
ffe8
ffff
0015
ffd9
ffdb
000c
0000
fff5
ffaf
ffe7
0010
0005
fffc
0030
ffc7
fffc
ffff
0034
0001
ffe9
0004
0045
ffed
ffd7
ffd2
ffc4
000d
fff6
fffe
000d
0001
ffd4
002e
003f
002e
fffd
000e
ffe8
fff8
ffe6
ffec
0024
0030
0020
ffc3
0018
0006
fff4
002d
0013
001e
0012
ffe4
ffe1
ffc9
ffe8
000d
ffff
0000
0013
001b
ffe1
0017
001f
fffb
ffde
fffe
002a
ffec
fff1
fff3
0030
fff2
000a
0021
ffc9
000a
ffff
001f
0020
fff3
ffe7
ffec
0018
000a
ffe8
0038
0006
fff6
0010
0020
fff4
ffd7
0006
ffd9
003a
fffa
ffe8
ffe7
fff3
fff4
ffe0
ffe2
fffd
0036
0010
002b
0017
0013
000e
ffaa
0004
ffdd
000b
0027
0033
fff0
fff0
0019
ffe7
fff7
ffee
fff8
fff7
0006
fffa
0015
0017
002c
ffeb
006c
fff1
fffc
ffee
ffc9
0020
fff5
0017
fff1
ffe8
ffef
001e
ffe1
0005
ffe0
0009
ffe0
0041
ffd3
fffc
ffc4
001a
000a
0005
0007
fff0
ffd1
0023
fff6
000e
fff5
ffcc
000b
ffe4
001e
ff9f
ffdf
fffe
ffd5
ffde
ffde
0003
ffd4
ffbd
0006
0016
0001
ffde
0019
0031
fff1
003b
ffd1
002e
ffed
ffef
ffe5
0019
0010
003c
002c
fffe
fff9
ffe1
0002
ffe8
ffed
fff2
fff1
ffec
ffd2
fffe
ffdd
ffba
0005
ffc2
ffd8
000b
ffe1
0016
0015
0014
0000
0017
0011
0021
ffd9
fffc
000c
0005
000e
0007
ffc3
000c
0019
0011
0024
ffe4
0013
0008
0000
000e
002c
ffb1
000d
ffdc
fff1
fff5
ffe3
ffb6
ffeb
ffd9
0013
ffef
000a
000f
000b
0047
0004
ffd9
fff8
ffea
ffde
001f
002a
0022
0021
0018
fff5
0013
0021
ffdd
000f
fff3
0016
000b
003c
ffda
0026
001e
ffe3
fffa
ffee
0007
fffe
0006
003a
002b
ffdb
ffbd
ffc5
0003
0001
ffe6
fff2
000b
0005
001c
0026
0003
fffa
001e
fff9
0003
fff8
fff6
0010
000f
0029
0002
0009
0003
0020
0011
0015
fff6
ffc0
ffc9
0016
ffe6
000e
0027
fff0
0001
0004
ffec
ffeb
fffe
000b
001d
ffee
0012
ffec
0002
fff9
0015
0012
0029
002c
0002
fff7
000a
ffcd
002b
0015
0007
fff0
fff5
fff2
fff4
ffff
fff7
0015
0000
fff4
ffee
000b
ffe0
001b
fffb
ffc5
0011
ffd8
fffb
fff8
ffe9
000b
ffd2
fffc
ffed
ffe0
fff6
000e
fff5
001d
0007
001c
0006
0019
ffea
fffa
0011
ffe7
ffdd
ffe9
0034
fffa
ffbc
0024
0002
0000
0014
fffa
fff3
fff0
ffec
0007
0015
ffd7
0025
ffb9
ffeb
fff4
004f
0038
fff2
fff6
ffaa
fffd
fff0
fffe
ffde
0014
0013
ffe4
fff0
fff6
0001
fffa
0002
fff2
0026
ffff
0017
ffe2
0008
ffdd
ffcb
ffd5
0019
ffe1
fff5
ffde
fffd
0000
001e
0011
fffd
ffea
fff5
ffec
000b
ffcd
0014
ffd6
0021
fff8
ffda
fff3
000a
0005
ffce
0011
fff5
ffcc
ffd7
0016
0004
fffd
fffb
002e
0004
001f
ffe4
0029
ffed
002a
fff4
000c
0041
ffd3
fff8
003e
0039
ffea
002f
001a
0028
000a
0001
000e
0049
ffe8
fffd
fffc
ffec
fff3
ffd0
000e
fff9
0016
ffde
ffc9
000d
ffbf
fffc
ffc5
fff1
0009
ffef
ffe2
fff3
ffff
ffed
0006
fff3
fffa
0016
0010
0012
ffff
001e
002f
001e
0012
000b
0017
003a
0036
ffef
0039
0010
0008
ffff
ffed
0012
0010
ffbd
ffdb
ffdd
ffdf
fff6
ffe1
0001
fffa
0001
0003
ffd7
fff8
ffee
001b
000b
ffd7
000a
ffbe
ffdb
ffdc
0002
ffff
ffda
ffdf
0008
001c
001e
001f
ffdf
fffb
000c
000e
ffc8
0021
0001
0000
fffb
ffea
0012
0003
0007
ffcf
000f
fff8
0045
0011
0013
fff2
ffe9
fff3
fff8
fff3
fffb
ffff
0020
000d
ffe5
001b
fff7
000b
ffee
001c
000e
fffe
001f
0026
ffdf
ffdb
ffe4
0023
0009
ffbd
fff6
ffec
ffec
ffef
000c
ffdb
ffc1
0001
ffdf
fffd
002b
fffd
000e
000e
fff0
ffd7
fffd
0002
000d
ffd6
0032
000e
ffea
005c
ffe1
ffed
001f
0022
0024
0028
ffff
fffd
ffe0
ffed
ffd0
0016
0021
002d
0008
0015
0029
0005
fff7
0016
ffea
ffe1
001d
fffa
ffd7
ffe5
0004
000e
fffe
ffe7
0009
ffe8
001b
ffec
0008
0004
ffc5
0000
fff0
fff8
fffb
0019
0011
ffed
0037
ffb9
fff8
0020
ffe0
0027
0002
ffe0
000c
fffc
fffa
fff7
fffc
ffed
ffd5
fff3
0010
ffd6
0042
0006
ffdb
0033
fff5
0021
002a
ffe8
fff0
001e
001e
0002
ffec
fffc
ffde
0030
ffed
fff1
0034
ffe1
0022
000a
0021
fff7
0033
ffff
001e
000d
ffd3
0008
0008
0012
0016
ffe0
0013
0046
fffc
003c
0019
0035
000d
ffec
000a
fff5
ffe8
000b
fff4
ff97
0009
fff4
0034
ffab
ffcd
0016
0012
ffbb
0003
0002
002a
0028
ffe7
ffeb
001e
0030
0020
001b
ffb5
003c
0015
ffbb
fff2
ffe9
ffeb
ffe3
ffeb
fff6
ffd2
ffd3
ffc5
ffcb
ffec
ffb2
ffae
ffd4
fff4
fffe
0029
ffce
fffd
ffd7
0032
0038
005c
0028
fffa
ffe7
000b
fff9
000c
003d
fff3
ffdf
002a
0015
0035
ffef
0004
0005
0025
0008
0035
fff4
fff8
002c
ffa5
ffa5
ffd9
ffcb
ffdb
ffba
000d
0013
000d
ffa7
ffc2
ffd8
ffbc
ffda
fffa
0029
000b
0035
0014
0009
001b
0026
0010
0037
000f
0022
fffb
ffee
ffff
fff2
0030
fff4
003a
0020
001e
ffdf
ffc2
fff2
0030
ffd4
001f
0001
0006
ffec
0024
fff5
ffd9
0048
ff9a
fff5
0009
0009
fff5
0036
ffce
ffd0
0030
ffee
ffed
ffff
fffd
0009
ffe8
0004
ffdb
ffe7
0005
ffdc
0018
0001
ffdb
0015
0012
000a
001d
ffec
0021
000b
000a
0014
000f
ffe3
002e
ffe6
ffe9
0030
001b
000a
002b
fff1
001e
fff4
0022
0034
fffb
000d
ffd1
0018
0052
ffe7
ffec
0060
001a
ffdc
002f
ffef
ffde
0010
001d
ffc3
000b
0020
000f
000e
0006
ffc8
ffff
0028
ffcc
ffe1
fff4
0002
fff9
fffd
0015
0029
ffde
ffe9
0007
fff6
0031
000e
0021
fffc
ffd7
ffec
0009
0012
fff0
fff2
0002
ffde
0003
fff3
002f
0009
0006
0019
fff3
fffe
fff6
ffda
001c
0023
ffe0
0022
000a
ffdc
0001
000a
fff1
ffeb
0008
ffd8
000a
0004
ffdd
0036
000e
ffcd
ffff
ffe8
ffcc
003d
000c
ffef
0028
000c
fffb
ffcf
fff5
ffc1
ffd3
000c
ffc1
ffdd
fff8
0003
0005
ffd6
000e
ffd3
fff1
0016
ffe7
fffe
002c
ffe1
ffe0
0019
ffd4
ffee
0012
ffe1
fffc
ffeb
ffd9
0004
0016
ffc8
ffa6
0044
0044
0014
000e
002e
0000
ffe5
fff2
fff5
ffd8
ffbb
0003
ffc9
0007
000b
0016
ffd2
0021
fffd
ffe2
ffdb
ffdb
ffbc
ffdc
fffd
ffdd
0002
002f
003a
ffe3
ffff
ffe9
ffd9
ffd1
fffb
001f
ffdf
001b
0005
0003
ffeb
0009
fff9
0006
fff7
0015
001e
0027
ffef
ffc5
fffd
0052
002a
000f
ffe2
001a
0011
0010
0036
fffe
fff5
001f
ffe4
ffdf
ffeb
0007
000e
001e
fff4
fff8
002b
0005
ffe5
ffef
0006
fff8
ffe3
ffeb
000a
fff8
0002
000c
0003
fff3
fffd
ffb4
ffd1
0001
ffdb
ffdf
0021
0025
fff3
fffa
ffff
0010
0004
003c
0004
ffd3
ffcb
fff0
0018
000a
fff9
ffff
000b
fffa
fff6
0001
0000
ffd5
ffe1
ffed
0000
ffd6
ffbe
002f
0009
001a
0017
0023
0042
0002
ffe7
ffe8
0024
0018
000a
ffe7
0005
0014
0001
ffd5
fffb
0017
001d
0024
fff2
fff0
0019
fffa
0004
0020
ffcb
fffb
fff4
fff7
000d
fff1
fffb
ffe4
fff0
0037
0018
ffff
0014
ffff
0012
ffa3
002d
0034
ffc4
0012
0037
0016
000d
001f
003b
0020
fff7
0026
ffe9
ffe4
0038
ffd2
0048
0018
ffae
0025
004a
ffd4
0021
fff4
fffc
0006
ffdd
ffdd
fffa
fff4
ffe1
0008
ffe4
ffc6
fff7
fffc
ffd8
000c
ffd5
fffe
ffdb
002c
fff6
fff7
0023
fffe
0003
0026
002a
0014
0015
fff8
ffe5
fff6
001c
0003
ffe7
002a
0009
0008
0024
001f
fffc
002b
0010
0029
ffd5
000f
ffd7
fff8
001d
ffea
ffcf
0027
0027
ffe7
ffe5
000b
0002
ffcf
fffc
0007
ffe1
ffe1
0030
fff6
0005
fff9
ffde
ffe8
ffee
0001
000b
fff8
fff4
000c
ffe4
fff4
ff9f
ffe4
0001
ff6b
ffe4
fff5
fffb
0019
0013
ffb3
001c
0029
ffe1
0010
fff6
fff7
0028
002e
ffcf
0023
002d
ffd5
0018
0004
002b
0031
fffa
0023
003a
0004
002f
0034
0017
fffe
001b
fff9
ffe7
001a
fff7
0033
0015
fff5
0004
fffe
ff8d
ffc4
ffeb
0015
ffdb
0018
ffef
0028
004e
ffe1
ffe7
002e
ffee
0014
0017
ffd0
003b
0033
ffd1
fffa
fff0
ffd9
0013
ffcf
0003
fff4
fff3
ffd1
fff1
fff0
ffab
0006
ffef
ffee
ffd8
0016
ffde
fff0
ffd3
0015
0036
0013
0031
0017
001c
0000
ffee
0012
002a
0005
0019
0039
0019
002d
fff8
ffdb
ffef
0025
001d
fff6
0004
ffe4
001e
ffb8
ffb1
0010
ffed
0033
fff9
fff9
ffee
001a
ffcb
ffcd
ffe1
ffab
fff9
ffc6
0038
fffe
001f
fffb
fff8
0001
0016
002c
0005
0022
0014
0002
ffe8
ffe3
ffdb
0012
ffe1
ffe8
0017
003d
0007
ffaa
ffd7
fff5
ffd9
0053
ffd0
fffb
000b
0007
ffd7
ffdc
fff5
ffcf
0008
0032
0000
fff4
0001
ffc9
ffd5
000c
ffff
ffea
001d
ffd8
ffef
ffd9
ffe0
003b
fffa
0008
001c
001b
ffee
0030
fffb
0037
ffc3
fff6
0017
ffc9
0017
0010
ffee
fff0
0029
0000
fff9
fff5
ffc9
0032
ffcf
0010
ffe3
000e
0030
ffec
001f
ffca
fff2
000b
000f
ffea
0014
fff9
ffe0
fffb
ffcf
ffcc
000d
0016
ffd4
0027
0038
0027
fffc
0000
001d
0032
ffef
001a
ffea
0005
fff1
000e
0004
ffe9
fffa
ffdc
0009
0024
ffb9
0001
0015
000d
0003
0011
ffd0
000f
000f
ffe3
000a
ffe6
0005
fff7
001f
0020
ffe6
0033
0007
0007
fffe
ffe0
000e
0004
000a
fff6
0022
0027
0028
fff1
0002
fff9
fff1
ffce
0007
ffcc
fffa
ffe3
ffe0
000d
ffee
ffec
0007
ffdc
ffcf
ffe9
fff7
fffc
ffd9
0008
ffb0
ffbc
ffd0
ffea
003f
001b
ffec
0045
0047
ffff
ffec
0004
000b
0018
0019
ffde
fff7
0012
fff1
ffe2
ffed
0008
fff2
0021
ffe4
fff3
fff8
ffce
0038
0009
0001
0005
002c
0002
0022
0005
000a
ffe3
001c
ffe9
fff8
0004
0000
fffb
0011
001b
ffcf
0006
ffe8
ffef
0040
0011
ffb9
fff5
ffce
0027
ffe4
002c
fff6
fff8
0007
0055
0030
0012
0030
ffbc
0039
fff5
ffd1
ffd7
ffe4
ffe2
000a
0013
0010
ffcd
000b
002c
000d
ffe9
ffd5
002a
ffe6
0029
ffdb
004b
0006
0015
000e
fff1
000b
ffd8
000a
fff6
001b
fffb
fff9
ffae
0020
ffe6
000e
0014
ffcd
ffdc
001a
0029
ffec
0006
fffb
fff8
000a
001a
fffd
0031
0010
000a
0008
0008
001c
fffe
ffd9
0005
000a
0019
0010
ffd9
ffeb
ffb2
ffe9
ffca
0000
fff8
002b
ffdf
0027
0009
0002
fffe
ffc5
000b
0003
fff6
ffe9
ffe8
ffe5
0038
ffd3
ff9f
0007
003a
000e
0003
ffda
000c
ffef
fff8
000b
ffdb
0030
0035
fff6
ffec
0026
ffeb
0018
000a
ffd5
002e
0011
ffd4
0022
0045
ffe7
0006
ffed
ffb9
ffba
0034
ffa3
ffcc
ffd9
ffb2
ffd3
ffea
fff9
0002
fff0
000e
000c
fff7
ffdd
0006
0027
fff3
0052
0009
0009
001e
0045
0003
002d
001d
fffb
ffe8
0026
0032
0032
ffe5
fff9
0005
ffda
0007
ffbe
fff4
0006
001f
0013
fff3
ffb8
0014
fff6
0015
0014
ffe1
0003
ffe7
ffff
0003
0004
ffdd
001a
0000
000a
ffdf
ffdb
ffd7
fff4
0005
ffe9
ffe3
0005
fffe
0007
ffdd
fff8
0013
ffd0
000e
fff3
0007
0005
fff1
0015
ffb2
ffe8
001f
ffe9
fff0
0044
fff1
002a
001a
fff4
ffed
fff9
0017
002c
0017
fffd
0006
ffde
000a
fffd
ffa8
0009
ffe6
fff8
fff4
ffd9
ffdb
ffe8
fffb
fff3
002b
000b
ffdf
0012
ffee
002a
ffda
ffec
ffb7
ffec
ff8f
0018
ffaf
fff3
ffe3
ffc6
ffd7
000d
fff3
003a
0017
ffda
002d
fffb
ffdf
001c
0020
ffdd
0019
0024
ffd6
002b
ffef
0046
001e
000f
0021
001b
000e
0055
ffea
0027
ffda
ffe2
0006
ffe4
000d
ffe7
ffd3
fff3
fffb
fff8
ffc7
ffe2
ffc0
0015
0000
0008
0002
ffd7
002c
002e
fff0
ffc6
0028
fff5
0001
ffe2
fff8
0006
ffe5
001e
ffd7
ffb9
002c
ffe9
0004
0024
ffff
0011
0017
ffba
ffe7
0003
001a
0036
fffa
fffe
0001
0031
0031
ffb5
ffea
0054
0028
0037
ffe2
0008
fff2
ffc3
002e
ffe6
fff7
ffdd
0016
ffcf
0001
fff7
0020
ffcd
ffec
ffe8
ffe9
ffe7
0015
002a
0016
ffaf
0014
fff8
000d
0007
ffd8
000b
fffb
0013
ffe8
fffa
000c
0017
001a
fff6
0001
fff3
fffc
003c
ffd7
0017
fffe
ffd7
ffed
ffd3
002d
000e
ffec
ffd9
fff8
fff7
fff7
0003
0028
0008
0027
0034
0017
0017
0017
ffd0
fff0
0029
0015
0013
ffe2
fff0
002c
0025
000f
fff9
0023
0016
fff1
ffdd
fffc
000d
ffed
ffff
ffef
003c
0033
ffc8
003d
000d
ffed
fff8
ffd0
ffc2
ffad
fff9
0032
ffec
000b
0017
0025
0015
002e
ffb2
ffce
0009
fffc
0003
ffd6
0021
ffc7
ffdf
0037
0032
ffe5
001d
fff9
0011
ffc0
0005
ffc7
001c
ffee
0008
000b
0017
0005
001c
0037
fffa
ffea
ffe1
0024
000a
0014
0034
000f
0012
0037
0000
ffde
ffe4
ffe7
ffa2
fff6
0007
ffbc
ffc4
ffa4
ffe9
0012
ffdd
0029
fffc
0012
001b
fffd
ffcb
ffde
ffdb
0008
fff2
ffdf
fff6
001f
ffce
fff6
fff5
0032
0014
001d
0018
0030
fffc
fffc
fffc
fff4
fff8
0005
001d
0023
0013
0007
0006
ffbf
0006
ffee
fff2
fff2
ffeb
0001
0009
0000
ffc0
ffa2
fff2
ffea
0004
fffd
ffee
0042
ffea
000e
ffd5
ffe6
0033
0014
0010
0020
0004
000d
ffea
ffda
000b
0003
000b
ffec
0031
fffa
000c
ffef
fff0
0003
0019
0000
ffe1
0024
ffe4
001f
fffe
ffca
0034
0020
000f
000f
0012
003c
ffc9
ffe9
0017
ffe2
ffba
ffbd
fff7
0003
ffe4
fff1
ffbd
fff9
000f
ffe9
ffeb
0025
fff6
0003
fff7
0000
ffd9
0031
0033
0002
001f
0032
002d
ffd2
ff98
ffe8
0004
fffb
ffef
002c
0018
0001
001f
ffeb
ffff
001c
ffff
0016
0047
0011
0009
0030
000a
ffd4
003f
0040
0051
0007
ffdc
ffd5
ffe1
ffff
0011
ffe5
ffcd
0019
fffe
000b
ffe9
001a
0006
ffec
0017
001a
fff5
ffcd
0013
ffef
ffe0
ffce
ffd9
fff7
ffda
ffe7
001f
fffc
fff5
0002
ffd3
ffe5
000a
002e
0011
004c
0025
0003
0014
0014
ffdb
ffed
fff2
001b
ffdf
0002
fff1
0031
ffe9
fff1
0000
ffe2
fff7
001b
0016
ffe3
fff3
000a
ffee
fff7
0018
0001
0003
0017
003f
ffef
ffc4
fff0
ffeb
ffce
fffe
0015
0007
0002
ffc1
ffa2
ffe3
0018
ffe5
fffe
0015
fff3
001c
ffef
0007
003f
0032
0033
fff3
002b
0010
0010
0028
0006
fff1
000c
ffe5
000e
fffa
ffff
0007
0006
ffe9
000e
ffc1
ffab
0004
ffd1
0005
ffe3
000d
0001
ffb1
0028
fff0
ffc3
fff4
ffe0
ffed
ffdb
fffb
ffd7
ffc3
fff1
ffbd
ffd8
0014
fff0
0023
002b
004d
fffe
ffd2
0006
0024
ffca
000a
0001
0017
0046
ffed
ffe6
ffd6
0007
001e
ffdc
0020
000a
0004
0006
ffe9
0018
0022
0016
001e
0031
0007
0028
0012
fff4
0004
000b
ffef
ffda
000c
ffee
000a
ffff
ffd2
ffe3
fffe
fffb
001a
0020
001c
003a
fff8
ffd5
ffd6
fff0
ffe3
ffee
fffb
001c
0005
0018
001e
0010
002c
001b
0031
003e
fffe
0019
fff2
fffb
fffb
fffa
ffd0
fff8
fffe
0031
005d
0019
001a
0025
0032
0023
0003
000f
0026
003a
ffe4
ffe7
fff2
ffff
0002
fffe
fff5
0011
0019
ffdb
ffd4
0010
fff5
0014
fff3
ffea
ffb1
ffea
001d
ffff
fff2
0022
003f
0004
fff0
0035
002c
0002
ffe1
ffee
fffa
ffd9
ffe6
0010
002d
ffda
ffe5
ffdf
000f
ffd4
fff5
0036
ffe1
ffa3
ffd6
002b
0008
fffa
0026
002b
0021
ff85
fff0
0022
001d
001b
0017
0012
fff7
0006
0007
0025
000f
000e
0004
002b
fff2
fff0
0024
0041
0004
ffda
ffee
0003
0022
fff2
0036
0036
000f
0003
0011
001e
ffef
ffeb
fff9
ffe4
fff8
0028
ffe8
0016
ffe4
ffc2
ffea
ffe5
ffea
ffe0
0004
0018
001e
000b
ffe9
000b
ffe1
0009
0008
001f
fff5
0012
fff5
ffe7
0035
ffec
001f
fff4
0028
ffe3
000b
fff3
ffbe
fff6
0014
fff5
ffed
fffc
ffca
fffd
ffef
ffbd
fff0
fffb
ffe8
0007
0015
ffc4
0003
001c
ffe8
0008
0031
0026
000d
fffd
0014
001e
ffec
ffe9
0013
fff1
000a
0005
000d
0009
fffa
ffef
0008
0020
fff0
fff2
fffe
007b
0023
fff8
fff5
000e
ffb4
ffcb
fff0
001b
ffd7
fff7
0036
0020
fff1
000c
000d
0009
ffdf
fff9
001e
0001
ffe7
000f
0022
0010
ffda
000c
0039
001e
ffe8
ff7e
fffb
ffa8
ffe0
ffec
ffdb
ffbb
fffa
003a
ff93
ffea
ffe4
fff8
0027
fff4
0003
002c
0003
ffc3
fff4
ffe3
ffd9
ffd1
000c
ffd1
000e
ffe9
fff3
ffc1
0006
0006
ffea
001a
ffe3
000d
002e
0006
000a
003d
0018
0000
fffb
ffe0
fffd
0024
0003
ffec
0014
ffe1
fffb
001a
fff8
fffd
ffde
ff98
ffc0
ffc6
ffdc
ffed
ffed
0029
0024
0002
ffdd
fff2
ffc6
fffa
ffdc
ffe1
0004
ffe9
001d
0029
000e
0045
ffe0
ffe2
000d
ffc0
0020
0030
000b
000a
003a
fffd
0017
0013
0040
003a
0001
0015
0047
000a
ffbb
ffe6
fff7
0006
004d
0000
ffd5
0004
ffee
fff0
ffd5
0022
000f
002a
0004
fff0
ffeb
fff8
fff2
ffd6
0005
fffe
ffcd
0014
0029
fff5
0029
001f
ffff
ffdf
0030
ffba
0044
0039
fff8
0030
0015
002b
0020
ffea
0014
fffb
0012
ffc1
ffd2
000c
ffc6
0002
ffe8
0000
0025
001a
000f
ffc6
001e
0025
fff1
ffc7
ffe7
0019
ffd8
0017
ffcd
ffcc
004e
ffec
fff7
ffd5
000f
ffcf
ffdc
000b
ffd8
0002
0008
ffe4
ffdb
fff3
ffed
ffe0
0007
ffc2
0016
002c
002f
ffd8
0045
000d
fffd
004a
ffd5
ffc4
0018
0032
0010
0013
0011
0000
001f
ffe6
ffe0
000c
0005
ffe7
003b
001a
ffea
fff1
0040
0009
0006
ffe9
ffe8
0010
ffcd
ffe9
ffdc
0001
002f
000b
001b
0016
fff9
ffef
0005
0046
ffd8
fff8
0013
0026
fff3
0027
fffe
fffd
ffef
ff9b
fff2
0012
ffef
fffb
fff7
ffa8
ffc3
004d
ffb9
ffd2
ffef
ffcc
fffe
0004
fff5
ffd6
0012
000e
fffd
001e
fff8
ffe2
000d
0002
ffd4
fff1
001c
ffd9
ffed
0022
0019
fffa
ffdd
ffce
fff8
ffeb
0008
0031
fffd
0035
0009
ffff
0047
fffc
001b
000f
ffda
ffff
0001
ffe9
000b
000c
ffdb
0035
0033
0006
fff8
0012
ffdc
ffc7
ffd3
0037
fff1
0045
0042
ffe8
000b
0005
0020
0019
fff6
ffe4
0016
ffeb
fffa
ffe8
fff9
fff1
ffec
fff0
fff6
fffa
0016
0029
fff9
002c
001c
ffe5
ffea
0004
ffce
0001
0004
fffe
0015
000b
001c
ffdd
0029
ffe4
ffe8
0013
fff9
ffff
fff3
ffd0
000b
001f
ffba
ffd2
ffd8
004c
fff2
fff5
003d
0008
001b
001f
0011
ffff
fff8
fff9
000d
0009
fff7
ffe4
0015
0019
0032
ffd2
ffea
fff4
ff9f
fffe
001e
ffd9
ffc8
0014
ffbd
000f
001d
ffb6
ffda
ffe8
ffda
ffbe
0012
fff4
ffdb
0001
ffbd
fffb
ffc5
ffb8
fffb
ffe5
000d
0009
fffd
002c
ffe4
fffd
ffe6
0023
fff5
000e
ffe8
001f
000f
0010
ffff
001d
0029
ffed
0027
0019
000b
003c
002d
ffec
0013
ffef
0026
fff7
fff9
000e
0014
ffe6
0004
0013
002e
0026
ffdb
fff9
ffee
ffd8
001d
000a
ffe7
0013
0020
0030
ffd5
0022
0020
ffe8
0017
001f
0001
0029
003c
0000
0030
000b
fff6
002d
ffff
ffec
000d
ffeb
fff3
fffa
0000
0024
fff6
ffdd
ffff
ffcb
000d
003c
ffda
0017
001a
ffaf
ffd6
ffda
0028
0004
ffff
0020
fff0
0007
ffff
002b
0038
ffd0
000c
fffc
0004
ffe6
0018
0003
ffd3
ffde
0030
fff0
ffd0
fff9
ffec
0009
fff7
0015
001d
000f
0005
0007
001b
0013
002c
fff0
fff2
ffe6
ffbf
0002
fff7
000a
fffa
fff5
0001
ffe3
ffe0
fff2
ffe0
ffdf
fff7
ffe5
ffdb
000e
ffd1
ffc4
ffca
003a
fff0
ffd2
002d
0025
ffd8
ffe2
ffd7
0006
fff4
fffe
fff2
fff3
002a
000b
ffe8
fffa
0009
fff1
000e
0015
fff9
002b
ffe8
0000
0013
ffff
fff9
0007
0001
ffbc
ffdb
001a
ffc4
fff2
fff8
ffec
001f
fff6
0028
000f
0010
0002
001b
0002
ffda
001a
ffd1
ffe7
003b
ffeb
000c
fff0
002f
ffdf
ffe2
0027
ffad
ffa0
0030
ffd6
0012
0013
0018
ffd6
001a
0022
0001
fff6
001c
002e
0029
ffe9
000b
0004
fff4
003a
fff7
0019
0006
ffd4
0007
0023
ffb5
ffe7
0012
ffd1
004a
0004
0000
ffe8
0043
ffec
fffe
000e
0026
ffde
000e
fffb
0009
001d
ffdb
ffeb
000a
ffd4
ffe5
000d
0005
ffde
ffec
002d
ffe3
fff1
0055
000a
001f
002d
fff3
ffe4
0018
0004
0010
0003
002f
001a
ffd5
fffb
001a
ffc7
0006
ffeb
ffd3
ffe5
ffea
fff6
ffda
0006
fffb
ffd7
002a
ffbe
ffdf
002c
0000
ffe7
ffeb
ffc0
ffcb
ffdc
ffe8
ffd0
ffe8
fff4
fff7
ffff
ffe9
0014
0027
0001
0030
0010
001e
fffa
001a
0017
0015
001d
000c
000a
0018
ffd8
ffb6
fffe
0006
0024
000c
0002
0015
002c
000f
0039
ffe5
ffe6
0006
ffef
0005
ffdd
ffe4
0006
fff6
ffdc
001a
ffe6
fff0
fffd
fff7
ffd8
ffe5
ffdf
ffe4
0026
0026
fff4
0010
0036
0003
0010
0021
fff4
000b
0029
fff0
0021
0021
0010
0009
fff8
fff2
ffe9
ffe7
0053
0002
ffe8
000d
0009
ffeb
0018
000a
ffda
0014
ffe0
fff6
fff8
0031
ffee
ffd8
ffff
ffe9
fff8
ffd9
ffea
ffec
fff2
ffe0
fffd
000b
ffc0
ffec
000d
0000
0023
0011
0045
0013
ffed
0035
0019
ffe6
ffed
fffb
000a
0012
ffed
ffea
ffea
0034
0020
002f
0004
0015
ffd7
0000
fff8
ffb7
fffc
fffe
ffd9
001d
0015
ffd0
ffc8
fff8
ffb1
0011
000b
0006
002b
0018
ff9c
fff5
0000
ffdd
0001
ffed
001f
0035
0004
001f
000b
ffdf
fff7
004c
ffe8
fffd
fff9
0006
0027
001c
fff8
0011
000c
fffd
fffd
ffe4
