ffca
ffb4
ff6c
0052
00a1
ffb0
0082
0025
00b5
0030
0085
ff4d
0087
0044
ff4e
0043
ffa6
ff42
ffc6
ffcd
ff83
ff82
ff5f
ff44
ffaa
ff7e
ffc7
ff87
008a
0024
ffd8
008a
0004
0090
004d
ffdc
0005
ffe5
005f
0050
0076
000d
003f
0045
0065
ff50
ff8c
fff2
ff4a
0067
0063
000b
00ae
005a
000b
ff4f
ffee
ff88
ff93
fff3
ffdc
ff9e
00b6
ffed
ff4e
fffd
0000
ff52
0052
ffe2
ff26
ff9c
