001d
0002
ffff
ffea
0007
0027
0007
0035
000d
fff7
0029
0010
0016
0013
002d
ffeb
000e
0025
0012
ffe5
ffea
0030
ffdd
ffcf
003e
ffe3
ffd2
ffda
ffe3
ffff
ffeb
ffd1
ffe7
ffe7
ffc1
ffcc
ffef
0007
0037
0007
0024
0001
ffec
0013
0021
ffd1
ffd9
ffd1
fff6
ffd1
ffdc
ffe9
ffc3
ffd2
ffe0
ffe3
0018
ffe9
000f
000e
ffd7
0012
0009
ffdb
ffcc
ffe4
ffee
ffde
fff3
ffce
fff5
ffdc
0012
001b
0025
002f
0030
ffff
0022
0009
0016
0001
0030
0001
0029
0020
0021
000a
0031
0021
fff6
ffca
0003
ffe2
ffd0
0012
fff6
ffd6
ffee
fff6
0009
fff0
ffdc
fff1
ffdc
ffed
0014
ffc7
001f
0025
001b
000e
0025
0028
0026
0012
0011
ffe8
fff3
fff9
fff2
0013
ffeb
ffda
fff4
ffe8
0009
0017
ffff
fff6
0022
0016
0008
0000
fffc
ffcb
ffe3
000a
0003
fffd
ffe2
ffd2
ffe3
0010
0018
000c
0018
ffe2
ffdb
0011
ffef
fffd
ffde
0028
0028
0013
ffd2
ffd1
ffdf
001b
0017
0016
0017
000a
0004
fffc
fffc
fffb
000e
ffd4
fff0
ffee
fff8
fff7
0009
0022
0011
0030
0014
0004
000c
0001
fffe
ffce
0000
ffde
000e
0011
0010
0004
0039
001b
0035
0046
0023
0009
ffec
ffed
002c
0007
002f
0036
0039
0012
ffd3
fff3
0002
ffe7
000d
000c
0024
0013
000f
0018
0001
0033
0025
0002
0000
0000
ffde
ffe5
0018
ffea
fff9
000a
fffc
fffd
000c
fff3
0003
0000
ffe9
002b
ffea
0016
000f
0006
0036
002f
ffe2
0021
0034
001e
002c
0030
000f
0026
0008
0015
0038
002e
fff9
fff1
fff3
ffef
ffe5
0006
0022
0005
fff9
fffe
0032
000b
001e
0034
0012
0017
001e
000f
0005
0004
fff7
000d
003b
0000
0006
0015
0015
0027
002f
0023
fffd
0020
0029
0019
000d
0035
0003
fffd
ffea
0004
0003
000a
0014
ffd7
ffde
000e
002a
001a
ffeb
fff1
fff2
fffc
fff4
0014
0022
fff4
0029
fff4
002a
003c
0000
0039
0009
fff8
001f
ffff
0011
0012
0029
002f
002d
000c
fff3
0012
0010
fff4
ffee
0017
000f
fff0
fff8
fff8
0007
000c
0011
002f
0016
0015
0042
0027
002e
0013
fff9
002b
000e
fffa
001e
0007
fff5
0025
002d
0007
001d
0002
000b
0029
0033
001b
000f
0028
fff9
002c
000b
0015
0018
001b
000b
0030
0014
0027
0035
0006
fffd
0036
002f
fff9
ffdc
ffbd
ffd6
ffe5
ffe9
fff3
ffd3
fff9
fffa
ffde
fff2
001e
ffe4
ffcd
000b
ffce
ffcb
ffe3
0037
0031
002e
002b
002d
0011
000d
0027
0003
ffc5
ffd7
0007
ffeb
ffd9
ffdd
ffdc
ffd2
ffe6
000c
fffe
0031
000c
0009
001c
0005
000c
0014
ffe5
fff7
003d
ffd2
ffd6
0008
ffce
ffe7
001c
0022
0010
ffdf
fff7
ffed
fff4
0001
ffd6
000d
fff4
ffef
ffdb
0020
ffd4
001f
ffff
fff4
0021
fff7
001d
002c
ffe0
0028
0021
0011
001e
0019
fffa
0016
003a
0022
001e
0001
001f
000e
0032
fff8
0000
ffec
000d
000e
0005
0011
000d
0022
0002
001f
0032
001a
0034
0014
0010
002e
0013
0021
0041
0028
003d
0023
ffe2
000b
fff8
ffe9
fffd
fffe
0000
0005
fffe
0005
0029
0039
000c
0009
0020
0003
0003
0021
fffa
0014
002a
0017
0019
fffe
0010
0013
0017
001f
002a
fff8
0013
ffe1
ffc3
ffd4
ffd5
fff0
ffe0
ffe5
ffec
ffc6
ffe0
ffe1
ffcf
ffcd
ffd2
fff3
fffe
ffe9
ffc9
fffe
002a
001b
0013
0013
fffb
0007
002d
000b
ffdd
ffbf
ffcb
ffde
ffc2
ffd5
ffeb
ffba
ffe6
ffe9
fff0
000b
000e
fff1
fff1
ffe4
ffef
ffe5
ffd8
ffe7
ffdb
fff4
ffed
ffc8
ffc9
ffe5
ffde
fff3
ffe4
001b
ffeb
0016
fffa
000a
0021
0006
ffe3
fff4
001d
ffe5
0009
ffdb
001d
0017
000d
0015
001a
0032
ffeb
fff6
0026
0013
ffee
ffe5
0036
001a
0013
0002
0020
0036
0018
000a
002a
ffec
0012
ffe4
fff1
ffe3
ffee
0012
0027
0011
003e
002b
0030
0036
0033
000c
001b
0008
ffff
000e
fffb
0018
fff8
0016
000d
ffdd
0009
0005
0032
0035
fffa
003e
003d
002c
fff2
0008
0013
fff9
0015
0020
001c
ffe6
0019
001b
ffdc
ffe1
ffef
0017
fff7
ffe4
0002
001c
0026
ffde
ffea
001d
0035
001b
0003
002b
003d
ffd6
0005
0036
0002
0003
0010
0029
0026
ffff
0022
003f
000d
0001
0010
ffff
0022
ffe3
0002
0008
ffe5
ffe2
0026
0025
ffe8
0010
003e
0029
0021
000c
0012
0014
000d
fff8
0020
0014
0011
001b
fffe
0012
002d
0001
ffee
0036
0025
0009
0040
0019
0034
001b
ffd9
0018
ffe4
ffde
0007
ffe8
0022
fffc
0019
ffd0
001f
ffef
ffe4
0015
000c
002a
fff4
ffde
0025
0021
001d
0032
000e
0024
0029
0005
001b
002f
0028
000e
0014
000a
0022
0036
0007
001d
ffe1
001d
fffb
ffdf
fffb
ffe6
001c
fff1
001e
002e
fffa
002f
0007
fff0
0003
0005
0001
0027
001a
0001
0041
000e
fff5
fff7
000a
fff0
002a
0033
0013
0040
003e
000a
0009
003d
0000
0009
0031
0032
001f
0019
0001
0011
0033
001e
001d
0011
0011
0029
0017
002c
000f
0020
0022
fff9
fff3
ffed
000f
fffa
ffd8
ffde
ffe6
ffe6
fff3
ffea
ffea
fff8
ffe7
ffcd
ffdc
ffd7
ffd6
0034
0027
0036
0016
001c
0024
fff8
0018
0014
ffcb
ffc8
fff5
fffe
ffee
fffe
ffd9
ffd7
fff7
ffea
ffeb
ffe6
0000
ffe4
0009
0015
fff2
0006
fffb
ffd3
ffea
ffff
ffd0
ffcd
ffd0
ffd6
ffdf
ffff
000d
0002
fffb
ffe2
fff9
ffeb
fff4
ffeb
0013
ffec
ffe2
ffed
0003
fffb
ffee
0019
001b
0003
ffdd
fff8
fff1
0022
000d
fff1
0006
ffe1
ffee
0003
0033
000e
0015
001b
0007
0023
0014
0015
fff7
0012
0000
ffed
001b
0012
001e
0011
fffd
002b
003b
ffff
001c
fff1
0020
001d
fff6
000f
0029
000e
0006
002f
ffef
0011
0002
0005
ffe4
001d
000b
fff9
001d
0002
0003
0009
ffff
fffb
fff8
0017
ffe9
ffdc
0003
0010
0017
ffee
000f
000c
001b
ffdd
ffe6
ffe6
fff8
0018
ffff
000b
0008
001a
ffef
0029
0012
ffef
ffe2
000d
0028
0022
fffd
0023
0020
ffff
0036
0024
0027
fffa
ffea
000f
000b
fffa
ffed
0028
0001
fff3
0010
0044
001b
0023
0019
0015
fffd
fff6
0027
003c
0040
fff4
0031
fffa
0022
0023
0015
001a
002e
001b
0024
001c
0032
000f
001b
0008
0019
fff3
fff1
ffed
ffdb
fff6
0019
0016
000a
fff6
ffe3
0006
0017
ffd7
0002
0026
fffb
fff0
0022
0015
0032
000b
002c
0013
0040
0009
002e
0023
000c
0013
0021
0008
0005
000a
0037
001d
0024
fff6
0012
0015
0001
ffe5
fff0
fffa
ffec
0020
fffb
0035
0037
0033
002f
fff4
003a
0015
fff1
0038
0011
fff8
0041
fff6
ffea
0019
fff9
0009
fff6
0018
fffc
0012
0003
001f
0028
000b
0025
001d
001a
fff6
0015
002a
0012
ffee
001f
fffc
0022
002c
0023
fff5
0029
ffea
0006
ffee
fff8
ffe6
fff7
fff7
0000
0022
001d
0024
0027
0029
0007
0000
0019
ffe5
ffde
0009
0006
000e
fffa
0018
0028
fffd
0027
0026
ffe5
ffec
ffea
ffec
ffea
fffa
0014
fff8
000b
000a
003b
0014
fffa
001f
0012
002c
002b
0034
fff3
0032
0039
ffe7
001c
0012
0009
0021
fffc
ffe3
001b
001b
ffe2
