fffb
fffc
000d
ffff
0012
ffea
fff0
001e
fff1
0010
fffa
fff1
0007
fffa
fff7
0002
0013
fff3
0006
0004
0015
ffff
001b
fff6
0010
0001
0011
0014
fffa
fff0
000b
000a
fff7
0013
fff1
ffee
fffc
0011
fffa
001a
0007
000a
ffe1
0001
0001
0002
ffeb
000d
000a
fff4
fff1
0009
000f
0008
fffc
ffe1
0024
fff3
fff0
fff9
000d
fffd
0000
fffc
ffef
ffee
fff2
0001
fff1
0008
fff0
0017
fff7
0000
001e
ffe9
ffe8
0012
0002
0003
000a
ffec
0008
fff2
fffc
fffd
fff9
ffef
000e
0014
ffea
fff7
ffea
000c
0013
fff1
0006
fff3
ffec
0000
0017
0000
0003
ffff
fff2
ffe8
000c
fffd
0017
ffdd
fff3
0007
fffc
0003
0015
fff4
fffa
ffdd
ffe0
0018
fff0
fff8
0003
000a
001c
ffea
ffff
0019
000b
000b
ffe9
0003
fff1
fffe
0007
0001
0010
fffc
fff3
000c
fff0
0018
001d
0005
fff2
ffff
fffd
ffee
0008
ffe9
ffff
0014
fffc
0001
0010
fffe
0010
001a
fffb
ffef
0012
ffef
000c
ffeb
ffff
0009
ffff
0005
fffa
fff3
ffee
0013
0006
000e
0015
0004
0006
fffe
fffd
ffff
fff4
0010
0007
000f
0002
0019
0018
fff7
fff2
0015
000e
0011
0003
fffd
ffff
ffec
0000
000b
0000
fff7
0006
fff4
0003
ffee
ffec
fff2
fffa
0003
0006
fff2
fffb
0002
fffa
0000
0005
fff8
0006
000b
0003
fff9
fff1
fff0
fff9
0002
0007
fffc
000b
fff5
0000
fff3
0002
000c
0002
fffe
fff7
fff1
fff2
fff0
0009
fff9
fffc
fff3
ffff
000b
0000
fffc
0000
000a
0002
fffe
0000
0000
0000
0000
0000
0000
0005
000e
ffec
fff1
fff6
000a
0007
0008
0007
fff8
0009
fffc
0000
fff9
0003
0004
fffb
000c
fff8
0001
000d
0007
fff6
fff4
0004
0000
ffff
0009
0004
fff3
ffee
000e
fffb
fff6
ffef
000e
0005
fff1
ffed
000c
0004
fff9
ffee
0008
fff1
0005
ffeb
ffed
ffec
000e
000d
ffed
000b
fff2
ffed
0006
0007
0006
0000
000e
ffed
0004
fff7
fffe
0008
ffef
0006
fffe
0003
fffe
0004
0000
fff6
ffec
000e
fff2
0001
0008
fffa
000b
0009
fff9
0002
fffe
000e
0009
fff1
ffff
0007
000b
0003
0004
fffa
fffd
fff0
000b
000b
fff2
ffef
000a
ffef
0007
ffeb
fff3
fff9
000e
fffb
000c
0003
000e
0006
000a
000d
fff8
fff8
0002
000d
fff6
ffee
ffee
fff5
0001
fffb
fff8
fff4
0001
ffee
000f
fffb
0000
0002
fff7
0004
fffd
0000
ffed
0000
0003
ffff
fffe
000a
000c
0009
fffa
0001
fff2
fff7
fffb
0000
fff4
fff7
0005
0003
fff1
0009
ffef
000a
0006
fff7
000e
fff4
fff6
000b
fffa
fff5
0000
fffa
0008
000b
0008
0001
0001
ffff
0001
fffd
000d
0004
fffd
0000
ffff
0002
000b
ffff
0000
fffe
0000
0000
0000
0000
0000
0000
0000
fff1
0004
0002
ffed
fffe
ffed
000d
0005
0003
000c
0009
000d
0005
fff2
0009
0002
fff6
fff6
000e
0000
000b
ffff
000f
fff0
0004
0002
fffd
000e
0002
0000
000a
fffc
fffd
ffef
fffd
fff5
0007
000d
ffec
fff3
000d
fff5
000d
000e
fff8
ffef
0005
0006
000c
0001
0007
ffee
0000
0001
0008
fff4
fffe
fff4
fff1
0004
0000
0005
fffc
ffff
fffc
0006
fff7
0001
0001
0004
fff8
0001
fff1
0009
000c
fffe
0002
ffed
fff6
fff6
ffee
fffb
000a
fffd
000f
ffed
0004
000d
000f
fff7
ffed
fff8
000b
ffff
000e
fff0
fff8
0005
0006
fff2
000e
fff9
ffef
0002
fff9
fff7
fff8
0002
0006
0009
fffa
fff9
000e
fff6
fff7
fffc
ffed
fff1
000d
0000
0002
0005
0008
0009
000a
0005
000b
0009
000c
fff8
0007
fff7
0015
fffc
0013
ffeb
fff9
000f
000f
000d
0002
fff7
0005
fff6
fffd
fff0
0007
ffed
0003
fffc
000a
000a
000e
fffa
000d
fff7
0001
0007
000f
fffd
0006
0020
0006
0015
0001
fff1
fff6
fff8
0007
000e
ffff
0018
0012
0019
0013
0000
fff0
ffed
0006
ffea
0010
0004
ffee
000e
fff9
ffe3
0000
ffe8
0009
fffa
0015
0011
fff6
fff2
fff5
0011
0000
0015
fff6
ffee
000c
000c
fffc
0001
0016
0003
ffe8
fff4
fff7
ffff
fffc
fff8
ffff
0012
fff0
0008
ffeb
fffb
000a
0006
000a
0014
0006
0000
fff6
ffe4
000d
0004
0000
0011
0006
0005
000e
ffec
000a
ffe9
0005
0013
0006
fff4
001c
fffe
001a
fffd
0013
000c
000e
ffe3
000b
ffe7
0006
fff4
000a
0017
000e
fffa
fff0
0005
fffc
000c
fff6
0009
fff2
000b
fffe
0012
000d
0007
ffef
fff9
fff7
0005
000c
fff6
0016
fffd
fffd
fffc
000e
fff5
fff4
001b
fffc
0001
ffff
0004
ffff
0005
ffed
ffef
ffec
fffb
0000
0000
fff2
0005
fff9
fff0
0007
ffe3
000e
000a
fffb
0008
0005
001e
0006
000d
fffd
ffff
fff1
fff4
fff6
fffd
0000
fff8
0004
fff5
fffc
ffed
0010
0016
fff8
ffef
0005
0005
ffe3
001a
0004
0011
0007
ffe4
fff0
fff1
ffeb
000a
000b
ffee
fff4
0006
0006
fffb
fff3
000f
0009
000a
0000
fff3
0002
0009
fff3
0019
0006
0000
fff8
fffa
ffe9
fff9
fff4
fffc
ffef
0004
ffea
0001
ffe8
0000
ffec
ffed
0016
000e
0009
fffb
0004
0021
0011
fff6
fff0
fff2
0007
0013
0011
000f
fff2
fff3
0004
0011
0022
0007
fff6
0000
0002
0004
fff1
ffe0
fff3
fff3
fff6
000f
0021
0018
fff8
ffef
fffb
ffff
000a
001c
0020
0014
0007
0021
001b
fffd
0001
0012
ffed
fff9
000f
0012
0000
001b
0015
ffef
0003
fffc
fff1
0001
fff5
fff2
fff0
ffed
fff3
001a
0002
fffc
0005
ffe3
ffe3
fff9
ffe6
0024
fffb
0001
0015
0017
001b
0009
ffee
0026
000d
0000
0012
fff2
fff9
0019
fff9
fffa
0015
fff0
fff5
fff6
000d
fff0
001f
ffe4
000a
0011
ffe7
ffeb
fff0
ffff
fffa
fffb
0017
0000
0002
000d
0005
0007
000c
ffe6
000e
0013
0008
0008
001b
0009
0003
fff5
fff2
0010
000c
0007
0003
0006
000a
ffed
000a
ffee
fff7
fffe
fffe
ffee
000b
000f
000d
0008
fff0
000e
fff4
000f
fffd
0006
0000
0000
0000
0000
0000
0000
0000
0000
ffff
0000
0000
0002
0000
0003
ffff
0003
0000
0000
0000
0000
0000
0000
0000
0000
ffff
0000
0002
ffff
0002
0000
0000
ffff
ffff
0000
0000
fffe
0001
ffff
fffe
0001
0000
0000
0000
0000
0000
0000
0000
0000
0000
0000
0000
0000
0000
0000
0000
0000
0000
0000
0000
0000
0000
0000
0000
0000
0000
0000
0000
0000
0000
ffff
0000
0003
0000
0000
0000
0000
0000
0000
0000
0000
0001
0002
ffff
0000
ffff
0000
0002
0000
0000
0000
0000
0000
0000
0000
fffe
0003
fffe
0003
ffff
fffe
0001
ffff
fffe
0000
0000
0000
0000
0000
0000
0000
0001
0000
0000
ffff
0000
fffe
ffff
fffe
0000
0001
0002
0000
0000
0000
0000
0000
0000
0000
0000
0000
0000
0000
0000
0000
0000
0000
0000
0001
0008
fffa
fff9
fff9
0000
fffa
ffff
fffe
0000
fffc
0001
fffb
ffff
0000
fffb
0000
ffff
fffc
0003
fffe
0001
fffd
0000
0000
0001
0000
0000
0000
0001
0000
0000
0001
0002
0000
0000
0000
0000
0000
0002
0000
0002
0006
0004
0005
ffff
fffe
0002
0003
0000
fffe
ffff
fffe
0002
fffa
0022
0004
ffe9
fffa
ffe7
ffe9
0005
ffef
ffdc
ffe6
fff6
000a
ffed
ffff
0006
ffec
0023
fffd
001a
000d
0003
0012
ffeb
0009
fff0
fff3
000a
0013
fff3
fffd
fff5
fffb
ffd9
ffe6
fffc
0018
0006
fff6
000c
ffff
000d
0002
fffc
000c
000c
001f
0024
0008
002a
0001
0016
0016
fffa
0006
fffc
fff5
ffec
fffa
fff7
000a
0006
ffff
0010
fffd
0003
0018
001a
000e
0017
0010
0014
fff0
0003
fffc
ffee
000a
0018
fffe
0000
ffd5
000e
0016
000b
fff8
fffe
0014
0008
fff5
0014
fffa
000c
000a
0015
fff9
000d
ffff
000d
ffff
0007
0011
ffe9
0011
000d
0005
0008
000c
fff1
0015
fff2
0003
0006
000d
ffeb
fffa
ffe4
fff0
fff5
fff5
fffd
ffe9
001a
0011
0014
fff3
ffe3
0007
fffc
0015
ffde
0020
0001
fff6
0005
fff8
0007
0001
0016
000c
0009
ffff
fff6
0009
ffea
ffe4
001f
fff4
0001
fffa
0001
ffe9
0007
000c
0002
0015
000a
fff2
0009
ffed
0001
ffeb
0005
0005
000c
fff4
0003
ffeb
fffc
fff2
0013
ffff
0020
fff2
ffeb
ffee
0011
0006
ffe6
000c
fffd
0000
0016
0008
ffec
ffec
0011
ffff
fff6
0011
0002
ffe9
0001
ffea
fffc
0003
fff3
0003
fff1
0007
fff8
0003
fffa
0003
0003
000a
0002
000a
fffc
fffb
0005
0003
fffc
fffb
ffff
0000
0004
000e
fff9
0007
fff7
0008
fff4
0002
0002
fffe
fffd
0004
0005
000a
0004
0005
fff6
ffec
0003
0003
0001
0001
0003
0005
000f
0006
0007
0002
fffa
fffe
fff4
fff7
0009
0011
fffc
fffb
fff2
fff1
fffd
fffd
000d
000f
000b
0004
0002
fffa
000f
ffff
001a
0009
0009
000b
0005
000a
fff7
fffe
ffeb
ffeb
0004
0006
0001
0001
fff7
fff6
0013
000e
0002
fffa
fffc
fff2
0010
fffd
0011
000d
0000
fff8
fff4
fff2
0001
0010
fffe
000e
fffb
0002
fff6
0005
fff5
0009
fff9
000e
fff4
0003
fff3
0008
ffee
0004
ffef
fffa
fffe
0002
fff9
0004
fff6
000c
0001
000e
0007
0003
0003
fff5
0011
fffe
0017
0005
0008
ffff
0009
0005
000a
0002
ffff
fffc
fff7
fff9
fff8
0006
fff8
000c
fff3
0005
0009
ffff
0008
fffd
000a
fffb
000e
fffd
000a
fffb
0005
fff2
0011
fffd
0016
000d
0001
0001
fffe
fffa
ffff
ffff
0013
000e
0003
0005
0006
0009
0006
0005
fff5
fff2
0005
0001
0000
0008
fffe
0009
fff8
0003
0017
0009
0008
ffed
0000
0007
000a
0000
001f
0017
0006
fff4
fff5
0002
0000
ffff
fff1
ffff
000c
0009
0003
fff9
0006
fffd
0011
0006
0009
0000
fffe
0004
ffff
0008
0018
fffc
0000
fffb
fffe
fffe
0005
0004
0001
ffff
fff5
fff1
fff2
fffd
fff8
fff8
ffdf
fff9
ffec
0009
0014
fffb
0008
000b
ffe4
000c
001c
000f
000c
0001
fffa
fffb
fff5
0006
ffef
0007
fff1
0002
0001
fff9
0004
ffed
fffa
0000
fff8
fff8
0011
001d
fff8
fff0
fff5
0009
fffa
fffe
000c
000c
fff7
000b
fff9
000d
0000
0011
fff9
ffff
0001
000e
0007
fffa
0004
ffff
0003
000e
000e
ffff
000d
fff2
fffa
0003
fffe
0006
001a
fff8
0016
fff3
fffe
0004
0008
000f
0008
0009
000b
fffd
0006
0006
fffb
0005
fffc
0000
ffe7
0005
fffb
000b
fffb
fffc
fff1
0003
fff9
fffe
0005
fffa
0005
0001
0014
0008
000b
ffef
0000
0007
0006
fffe
fff7
0006
fff0
0005
0002
fffd
ffff
fffb
ffe5
0009
ffea
0013
0000
0007
0001
fff8
ffee
0009
fff3
000d
0013
0002
fffe
0003
0019
0000
fffd
fffb
fffe
fff9
0006
0007
000f
fff9
0011
0000
fffb
0003
0006
0006
ffe5
0004
ffff
ffeb
000a
ffe9
0005
ffe5
001d
0011
0009
0019
ffdf
fff4
fff7
ffec
0000
0001
fffe
0004
0019
ffff
ffff
001c
ffed
fffc
0007
0007
001e
fff4
0002
ffed
0025
0022
fff5
0008
ffe9
ffef
0006
ffec
fff5
0003
0004
001f
0018
000b
0003
fffb
fff5
ffe1
fffa
fff1
001a
ffff
000b
fffd
ffe6
ffec
000b
fff8
0010
0007
0013
0001
fff0
ffff
001b
0002
001b
0010
fffb
ffed
fffe
0016
fff1
ffe8
0002
0016
fff0
000e
fff3
0005
000b
fff4
fffa
0026
000e
0022
000b
fff1
0014
0016
000b
0020
0002
fff8
ffe2
0018
fff8
0023
fff7
0006
0001
0016
ffe6
fff6
0005
ffee
fff6
0003
fff9
0005
fff4
0024
0007
fff8
fff4
ffff
fffe
fff5
0012
ffff
0011
fffe
0006
ffff
fffc
0007
fff6
fff4
0002
001c
0010
001d
fff9
fffe
0006
000c
ffef
000b
ffdf
ffe8
ffed
000a
0016
000b
ffed
0007
ffee
ffe4
0002
ffea
000b
0004
0016
fff7
000d
000e
0007
0015
fff2
ffe6
fffc
0017
0006
0021
0003
0016
0006
0005
fff8
fff5
000b
001b
ffff
0001
0019
0016
0001
fffc
fffb
ffe7
ffe8
0010
001f
0007
0006
fff7
ffea
fff2
0008
fff2
0024
fff8
ffe9
0000
ffdc
0018
ffdc
0008
0000
0009
ffff
000f
fff6
0011
0001
0012
0002
000e
0014
fff5
ffeb
0001
ffe2
0001
0001
000a
ffea
ffe8
0001
0008
fff6
000b
0012
0005
fffa
0016
0014
0000
0013
0005
ffe2
ffe6
ffdc
0013
fff0
fffe
fffa
fff8
ffe3
0006
000a
fff0
0011
0005
0000
fff8
0017
0015
000d
ffec
001f
000a
ffe0
0013
ffed
fffa
0003
0008
0015
ffe7
001f
fffe
ffeb
ffed
ffea
001b
0006
0017
001f
0007
ffff
fff6
ffef
fffc
0015
fff5
fffc
0004
fffb
fff2
fff7
fffc
000a
0010
0004
fffd
0005
fff7
000c
0002
ffe8
000b
fff9
fffb
0002
ffed
fffe
000b
ffde
0016
fff5
001c
fffd
ffed
0002
0004
ffe3
fffe
0004
0011
0014
ffe3
fffb
0001
ffea
0009
fffc
0003
fff1
fff2
000f
ffff
0006
ffe7
002a
ffec
000f
000d
0016
fff8
001c
fffd
0004
0004
0013
ffef
fff7
000c
fff2
0003
ffde
0000
000a
0008
fff1
fffa
0010
ffe4
001c
fff1
ffef
0000
0012
fff4
002e
fffa
000b
fff1
fff9
fffc
0000
ffec
0005
ffee
fff5
fff1
0016
0007
000a
0010
000a
0006
0017
fff1
fffc
000a
fff0
fffc
fff4
000c
ffe4
0011
fffe
fff7
ffff
fffe
0000
fff9
ffff
0005
fffd
0000
fffa
0000
0003
fff6
0001
0008
ffff
fffb
ffff
0001
0001
ffff
ffff
ffff
0003
fffa
fffb
0004
fffb
fffd
fffc
fff9
0000
0000
fffc
ffff
0001
0006
0009
ffff
fffe
0000
0000
0000
ffff
fffe
0001
fffd
0000
ffff
0000
0004
0000
fffe
0000
0000
ffff
0001
0000
0000
0000
0000
0000
0000
ffff
0006
ffff
0008
0000
0002
0000
fffe
0002
0001
fffc
fff9
fffa
ffff
ffff
fffc
0000
0002
0002
fffc
0000
fffb
0003
0000
ffff
fffd
fffe
fff8
0000
fffc
0005
fffd
ffff
0000
ffff
fffe
0003
fffd
fff5
0000
0003
fff7
0001
0006
fffe
fffe
0002
0002
ffff
fff9
fffe
fff9
fff6
0004
0004
0001
fffc
0003
0003
0003
0000
ffff
fff8
0005
fffe
fff6
0003
ffff
0000
0000
ffff
0000
0007
fffa
fffe
0005
fffe
ffff
0008
0006
ffff
0003
fffd
ffff
0006
fffd
fffd
fffc
fffa
0007
fff7
fff6
ffff
fffd
fffe
ffff
0003
fff9
0000
0000
0000
fffc
0002
0000
0000
0001
0000
ffff
0000
ffff
0000
0000
fffc
0000
0003
fffc
0006
fff6
fffa
0006
fffd
fffb
fffc
fffb
0000
fffd
fffc
0003
fff4
fff4
ffdc
0011
0009
0009
fff2
0006
0014
0016
001a
0012
ffff
fff0
000d
000e
fff7
fffd
fffa
ffef
fff9
0008
0008
fffd
0003
0018
ffea
0004
ffee
fffd
ffee
000f
0017
0002
0021
fffc
0011
0011
fffc
0003
000a
0000
fff8
fffd
0007
ffe9
ffe9
ffec
0012
fff5
0005
0002
001a
001e
0007
fff1
0005
ffff
fff6
000a
0017
000b
ffef
ffeb
0007
fff8
0006
0006
0007
ffeb
fff2
fffb
0015
fff8
0014
fff8
fffd
000c
000d
0000
0000
0003
0001
fffe
0003
fffc
fffd
000c
0000
0006
0019
fffe
000d
fffc
ffe5
fffe
0002
0006
fff0
0028
0002
0017
0004
0003
ffee
0014
0003
0016
fff3
fff4
ffed
fff9
fffd
001a
fff1
fffe
0004
0011
fff1
0009
fff3
0020
fff1
002b
0005
000c
0004
0013
ffef
0002
0011
ffdc
fff4
ffe2
fffd
0009
000b
ffeb
000b
ffe1
0004
fff4
fffa
fffa
fff6
0014
000a
0021
ffeb
fff7
000e
0016
0011
ffe2
000b
ffdc
fffd
fffa
000a
fffc
ffe5
ffe9
fffd
0002
000f
0013
fff1
ffec
0017
0003
fff3
000e
0011
0022
ffe3
ffed
000d
000a
000c
fff1
0003
000d
fff9
0013
ffee
000e
fff3
0019
ffef
0000
fff9
0006
ffff
fffa
0000
0000
0000
fffe
0000
0001
fffb
ffff
fff9
fffc
fffb
0002
fff2
fff5
0006
fffd
0000
0001
fffd
0005
0000
0000
fff6
0005
fff6
0007
fffd
fffa
fffa
0004
000d
0002
0007
fff6
fffc
fff7
fff5
0001
fffc
0001
fffc
fffe
fff8
fffd
0001
fff7
0000
0003
0000
fffb
0000
0006
0000
ffff
0000
0000
0000
0000
0000
0000
0000
0000
fffd
fffe
fffe
0004
0005
fff6
0001
0002
0008
0002
0000
fffe
fffb
0000
0000
0000
000a
0004
0002
fffb
fff3
fffc
000a
000b
ffff
0007
0006
fff6
fffc
fff9
fffe
0004
0005
0007
fff7
0009
0002
fff5
fff3
0004
000b
fff6
0001
fff2
0008
0003
fffc
0006
0004
0008
0000
ffff
0005
0004
fff3
fff9
0000
ffff
0005
ffff
0007
0000
0007
0000
0000
0005
0003
0000
0000
0000
0000
0000
fff3
0000
0005
fff2
fffe
0000
fff2
000c
ffff
fff3
fff9
0001
000a
fffa
000c
fff8
fff4
fffb
fff5
0004
0009
fff2
fff3
0007
ffff
0000
0009
0000
0002
fff7
0004
fff9
0000
000a
0000
fff7
0000
fffd
0001
fff7
fffd
0000
fff7
ffff
fff6
fff8
fffb
fff8
fff6
0000
fff3
0008
0009
000e
0004
fffd
ffeb
fff2
0014
000d
0023
0003
ffeb
0011
000d
fffc
0017
0013
0014
0000
fff7
0006
fff7
ffff
ffdd
ffec
fff6
000e
0010
ffe1
ffef
fff9
0009
0001
0012
ffea
0013
0010
000b
fffb
000f
fff9
fffd
0010
ffea
000e
0001
0004
0007
000f
fff4
fff3
ffe1
fffa
ffe8
0023
fffc
0009
000a
000e
0016
fff1
002d
0018
ffff
fff8
fffb
0007
0001
fff6
fff3
fff7
ffed
ffed
fffa
fff1
0008
0018
0020
001d
0016
0007
fff7
ffe3
fffa
fffc
0002
0015
0009
0009
0000
ffe7
0001
fffc
0007
0006
ffec
0003
fffe
fff7
000e
0014
ffea
0004
ffee
fffd
0000
fff5
0007
fff2
fff2
0005
fff3
000f
0020
000c
0012
ffed
fff9
fff8
fff9
0008
0015
fff0
fff5
000e
fff5
fff8
ffef
0006
001b
0008
fffb
fff5
0006
ffe9
0003
ffee
fff4
0001
0004
0013
fff5
fff8
0011
fffc
0002
0013
0011
001a
ffdd
0005
0008
000d
ffff
001d
0008
0003
0009
ffed
fff0
fff5
fff0
0015
000b
0014
0001
ffe2
0002
ffdf
fffb
000c
fff3
0014
ffde
ffff
fffa
000e
0006
0013
fff2
0002
fff7
0000
0008
000b
0006
0013
fffb
fffd
ffd9
0001
fff0
0012
fff5
fff9
0014
fff6
fffd
ffff
0000
fffd
0001
fffa
0000
fffc
fff9
0001
0003
fffc
0001
fffe
0004
ffff
ffff
ffff
fffc
0002
0005
0003
ffff
fffe
fffc
fffe
fffa
fff8
fffd
0007
0000
fff6
fffd
fff7
ffff
ffff
fff9
fff7
ffff
ffff
0005
0000
fffc
fffc
ffff
0000
0003
fffb
0000
0000
0000
0000
0000
0000
0000
0000
0000
0000
0000
0000
0000
0000
0000
0000
0009
fffc
fffa
fff6
0002
fffd
0006
fffd
0006
0004
0004
0003
fffc
ffff
ffff
0000
0004
fffc
0004
ffff
fffc
fffe
fff7
0000
0000
0007
0001
0000
ffff
0002
ffff
0001
fffc
0004
0000
0003
ffff
0002
0008
fffe
0005
fff5
ffff
fff6
ffff
ffff
0000
fffc
0000
fffd
ffff
0005
0000
ffff
fffd
0001
fffc
fff9
ffff
0001
0002
0003
ffff
0005
fffd
ffff
ffff
0000
0000
0000
0003
0000
000a
fffc
ffff
fffd
0009
fffa
0004
fff8
0005
fffb
fffc
fffc
ffff
ffff
0000
0006
0004
fffb
0009
ffff
fffa
0001
ffff
0009
0000
0004
0000
0000
0000
ffff
fffe
ffff
0000
0000
0000
0000
0000
0000
0000
0000
ffff
fff9
0009
ffff
fff9
0002
ffff
ffff
fffc
0000
0003
fffc
0002
fff7
fffe
fffe
0002
fffb
0002
fffe
fffe
fffd
fffc
fffd
0004
fffc
fffc
fffc
fffc
fffd
fffc
0002
fffe
0000
0002
0001
0000
fffe
fffe
fff9
0003
fffd
0001
fffd
0001
fffc
fffe
fff9
ffff
fffc
fffc
fffe
fffc
0000
fffc
0005
fffd
ffff
fffb
fffb
fffb
fffc
fffd
0001
fffb
0001
0003
fffe
0002
fffe
0000
fff8
0002
0001
0004
fffd
0002
fffb
0001
fffa
fffe
fffe
fffa
0001
fffe
fffd
ffff
fffe
fffc
fffc
fffc
fffd
fffc
0000
0001
0003
fffc
0001
fffd
0000
ffff
fffd
0001
fffc
fffe
0002
fffe
0002
0002
fffd
fffd
fffb
0002
fffe
0004
fffd
0001
fffb
fffd
fffb
0003
fffb
0002
fffe
fffe
fffb
fffc
fffb
0005
fffa
fffe
fffd
fffc
fffd
fffc
fffe
0003
fffb
0001
fffd
0001
fffa
fffe
fffb
fffb
fffe
fffd
0004
0002
0000
ffff
0001
fffb
ffff
fffe
ffff
fffe
0001
0000
0004
0004
fffb
0001
fffc
fffa
fffd
fffa
fffe
fffb
0003
fffd
0002
0001
0001
0000
0001
fffa
0001
fffc
0002
0004
fffe
ffff
fffb
fffc
0000
0002
0000
0004
fffd
0002
fffb
fffd
fffb
fffc
fffe
fffd
0001
fffe
0004
0001
fffb
fffd
fffd
fffb
fffe
fffb
ffff
fffe
fff4
0000
0008
0000
fffd
0000
0000
000a
fffb
0006
0006
000a
0009
fff4
fff5
fff6
0005
ffff
0000
0000
ffff
0000
ffff
fff8
fffd
fff6
fff2
fffc
fffe
fff6
000c
fffc
fffc
0008
0000
fffc
0001
fff4
000d
0001
0001
fffd
0006
fff7
fffb
fffb
fffb
0000
ffff
0000
0001
0000
0000
0000
0000
0000
0000
0000
0000
0000
0000
0000
0000
fffe
0006
0001
0004
ffff
fffc
0000
fff5
fffe
0001
0000
0005
0002
0003
0000
fffd
fffe
ffff
ffff
fff5
fffa
0009
ffff
fffb
0000
ffff
fffe
0005
fffd
fff9
0009
fffe
fff8
000a
0000
fff1
fff3
fffb
fffd
fff2
fffa
0002
fff4
fff4
0002
0001
fff3
fff1
0009
000b
fff9
000d
0007
000b
fff8
fffb
0006
0002
fffc
0000
000a
0000
fff4
fffd
0000
0000
0000
0000
0000
0000
0007
0000
0005
fff8
fff1
fff5
0006
0002
0000
fff4
fff7
fff8
fffc
fffb
0000
fffa
fffd
fff5
0006
fff2
0001
fff1
fff6
000e
fffc
fffb
0000
fff5
0000
ffff
0000
0000
fff5
fffa
ffff
0009
fffc
0000
0003
fff5
0002
000a
fff8
0009
0008
000b
000b
0001
0007
fff8
0001
000d
fff9
0002
fff6
0004
0003
000a
000e
0005
0018
fffb
ffe6
0012
fffb
0004
ffdb
ffec
fff8
ffd9
0002
fff4
fff9
ffee
0013
0018
0009
0018
0007
0007
000a
0016
0004
0008
000c
0016
fff2
0002
fff3
0015
0001
ffe0
fff4
ffed
ffff
ffee
fff8
fff3
0006
000b
fffc
ffd5
000a
ffef
fff2
fffa
001b
fffb
fffd
0006
000b
fffc
ffe9
0002
fffa
000e
000f
0006
ffed
fffe
ffe5
ffeb
0012
ffff
ffe5
fff8
ffe9
0002
0008
ffe3
0011
ffe7
000a
ffef
ffea
000a
001d
0017
001b
0012
fffa
0010
fff6
ffff
fff0
0019
fff6
0016
ffe3
0013
fffe
0005
ffea
fff7
0013
001a
fff7
ffff
000b
0000
0009
0011
0002
fffb
000b
0010
0004
0016
fffe
fff7
001f
fffe
fffe
fff4
000f
0001
fff0
0010
0011
0026
fffe
000d
0005
0029
0003
0007
fff9
0015
ffe1
0012
000c
ffff
ffed
fffc
fff0
ffe2
0002
ffea
fffe
ffed
0001
0006
0010
ffe6
0007
ffe8
fff2
000a
000f
0012
ffde
0005
fff0
fffa
fffc
000a
000d
ffe8
fff7
0025
fff8
0010
fff0
fff8
ffe4
fff9
fffc
000d
ffe2
001e
fffa
0012
ffea
0008
ffe6
fff0
0008
0002
fff2
0001
0017
ffef
0007
ffeb
0013
000e
0000
fffb
fff4
000a
fffc
fff4
fff3
0001
fffc
0008
fffb
0008
0015
000f
0002
fffd
fff4
fffc
0007
ffea
000b
0001
fff2
ffff
0006
0008
000f
fffa
fff5
000f
001c
001a
0004
0017
fff5
0006
ffec
fff6
ffea
ffe9
0004
0002
0007
fffd
ffff
0003
0010
ffdf
0007
fff8
fff2
0006
0004
ffee
fff0
0010
fff7
0000
0005
ffef
fffb
fffc
fffc
0003
ffe4
fff7
0013
0004
001c
000c
001b
000f
fffe
0014
0016
0016
fff8
ffec
fffa
0008
fff4
ffe8
fff4
ffdc
0005
ffe9
0007
0002
000c
ffea
0004
0000
0006
0028
000d
fff0
ffe8
0001
0019
0003
0008
fff5
0004
ffeb
fff7
0002
001c
0013
0004
000d
ffff
fffd
0006
fff2
000a
fffb
0003
ffee
fff2
fff6
0014
fff1
fff1
fffb
fffa
0010
0016
0000
fffe
ffec
ffef
0000
0000
fff9
0004
fff5
fffb
fffb
fffc
fff3
000e
fff0
fff2
0003
fffd
fffa
000e
fff7
0005
0004
ffeb
fff0
0012
0004
0015
fff9
001b
0017
fffe
fffa
0004
ffee
fff7
fffe
000c
0012
fffa
0017
ffe8
fff5
0012
0003
0006
0001
ffec
0009
0001
0003
0022
0009
0012
000c
fffa
fffa
fffd
0001
fffc
0003
000f
fffd
000c
fff9
0014
0015
0008
fffa
000c
0010
fff0
fffd
ffe6
fff7
000a
fff4
0016
001d
fff8
ffea
000d
0002
0010
0005
fff7
ffef
000c
ffea
ffeb
000b
ffea
000e
0017
fffe
ffea
fffb
ffed
fffb
0022
fff1
000e
fff8
000c
ffea
0005
0006
fff7
001b
0016
0011
000e
ffff
fff5
0008
0024
fff9
fffc
fff0
fffa
fff6
0010
fffd
fff5
000a
ffd9
fff1
0000
000a
0004
0000
0000
fff3
0015
0016
ffe5
0018
0002
ffe7
0020
000e
001c
fffb
0006
0003
0001
fffe
fffc
fff8
0008
ffee
ffed
000a
fffa
fff7
0002
000e
ffdb
0003
fffa
0003
fffe
0000
fffb
0005
ffef
ffed
0015
0006
000e
0019
000c
000c
001e
000f
fff6
0011
fff5
0007
fffa
000a
0030
0004
0007
fffc
fffa
0001
fff0
ffea
000f
0018
0004
0016
ffee
fff8
0002
ffe5
fff2
fffd
ffe1
ffea
0014
fffe
000d
0011
ffec
fff7
0006
ffe9
0013
fff6
000e
0023
0015
ffef
0020
fff9
fff2
001c
000a
000a
fff6
0006
ffe7
fffa
fffc
ffff
0008
0011
ffdb
001c
ffe5
fffd
fffe
0004
000a
fff4
fff6
fffa
fff0
0016
0013
0003
0020
0005
0005
0007
000e
fff3
0010
ffee
fff3
0010
fffd
fff5
0001
0011
fff5
fff4
0001
fffe
0011
0005
fff3
fffd
ffff
fff6
0016
ffff
0005
0006
0000
0011
0004
000a
001c
000c
fff5
ffe8
0015
fff9
fffb
ffe3
ffe8
ffea
0018
fff5
fff9
ffe8
000f
fff1
0026
ffe3
fff4
001a
000c
001e
001a
001f
0002
0005
0016
fffe
0006
0016
ffe3
0009
0016
002e
fff8
fff0
0003
ffea
0008
ffdf
fffb
ffe0
ffee
fff7
0011
ffec
0006
ffe2
0011
0001
fff0
ffef
ffef
0009
fff6
ffed
000b
0006
ffec
fffb
0002
0002
fff7
001e
fff4
ffdd
0011
fffb
0010
0002
0003
ffff
0002
fffb
0007
0009
000f
fffc
0012
fffa
0011
000a
0003
0001
0001
fffb
0008
ffdc
0006
fffe
001a
ffec
fff6
ffe8
0001
ffe0
fff8
ffec
0010
fff3
0006
0006
fff7
ffef
000a
fff9
0010
ffda
fff9
ffe4
0009
ffe4
000b
ffd4
ffe7
0001
0004
0015
fffc
fffd
0002
0018
0008
0013
0007
000e
0004
000f
0002
fffe
001b
fff5
fffa
fff4
fffc
fffb
ffef
0000
0008
0027
fff3
ffff
0005
0019
000d
001b
fff7
0001
fff5
ffea
ffef
ffe2
0001
0018
000d
ffeb
001b
0006
fff7
ffe9
0009
ffef
0010
0014
0003
001a
0002
000a
fff7
001a
0010
0006
fff3
000b
0007
fff3
ffed
ffef
ffe9
ffff
0009
ffff
0016
fff9
0008
ffe1
ffe5
0001
000e
0011
fffe
fff4
fffe
0003
fff5
fff9
ffe5
0004
fff2
0007
000b
001d
000a
0010
fff9
0006
fff2
0017
0003
0010
ffe2
ffeb
fff2
ffe6
ffed
fff2
000f
0001
0009
0013
001e
0006
000f
ffe7
0010
ffe6
fffe
000b
0013
0001
fffd
001e
fffb
000b
fff7
000f
fff5
0015
fffb
0013
0013
ffff
000e
000d
fffa
0012
0017
fffa
0002
ffec
0010
fff8
fff4
ffe9
001b
fff6
0003
0002
fff4
0011
000c
fff8
fffe
0011
ffed
0008
0009
000a
fff7
fffb
000c
0003
fff2
fffb
fff5
fffe
0000
001b
0011
0016
000b
fff7
ffee
0003
ffef
0003
fffc
000b
0000
fff5
000a
000c
ffe1
0016
0014
0014
0015
fff7
fff7
001b
fff0
0027
0011
0017
fffd
ffe2
fff5
0014
000c
fffe
ffed
0007
fff7
0007
0001
ffe6
000c
fff2
ffe7
0002
0001
0000
fff8
0005
000a
000b
0013
0001
0014
fff2
fff8
0002
fff8
ffeb
0005
fff8
0003
fffc
fff1
0009
0003
000d
ffe7
0000
fff8
001e
fff8
fff5
fffe
000f
000a
000f
fff1
fff7
0007
ffff
0001
ffdf
0002
ffe4
0002
0005
fffa
ffef
0008
000d
0004
ffeb
fffb
ffe9
ffd5
fff3
0002
ffed
0005
fff4
ffff
fffd
fff9
fff9
0012
0018
fff4
0004
000a
000e
0002
0014
0001
0016
0007
0011
ffed
fff9
ffec
fff9
0004
ffef
fff5
0008
0000
000b
ffff
0004
0007
fff1
0005
fff7
000c
fff9
fff8
ffee
0026
fffb
ffe9
0008
0005
fff3
fff9
000f
ffdb
000e
ffed
fff1
ffe5
fff6
fff2
fff9
0009
000b
0005
fff5
fff0
ffed
fff0
fffe
0011
fffc
ffe8
001f
ffe2
0003
fff8
001c
ffe7
ffe1
001d
001d
0006
0017
0014
fff5
0005
fffe
fffe
0013
0006
000d
fff0
fffd
0019
0009
fff5
000a
ffe9
ffea
fffa
002b
000d
001a
0006
0004
0012
0015
fffb
0028
000c
000b
000f
fffa
000b
0007
ffe7
0024
0007
0004
000f
000e
0011
0006
fff6
000f
0006
fffb
0007
000f
000f
0003
fff8
ffef
001a
0021
fffa
fffd
ffe5
fff5
fff6
ffeb
ffe5
0014
ffff
fff4
0017
fff5
ffef
002c
000c
ffea
0008
fff4
0015
001a
0012
fff1
0009
fff4
000d
000b
fff0
fff7
0005
ffe5
000c
0004
fffb
0005
0001
fff0
fffd
fff0
fff4
ffff
fff8
ffed
0004
fffd
fff5
0004
0000
fffa
0001
000a
0018
fff3
ffe9
ffef
ffee
fffa
0013
ffff
0007
0009
0000
ffff
0000
0000
0000
0000
0000
0000
0000
0000
fffe
0000
0001
0000
0001
0000
0000
0000
0000
0000
0000
0000
0000
0000
0000
ffff
0000
0001
0000
0001
0000
0002
0002
0001
0000
ffff
0001
ffff
ffff
0000
0000
0000
0000
0000
0002
0000
0000
0000
0000
0000
0000
0000
0000
0000
0000
0000
0000
0000
0000
0000
0000
0000
0000
0000
0000
0000
0000
0000
0002
0000
0000
0000
0000
0000
0000
0000
0000
0000
0000
0000
0000
0000
0000
0000
0000
0001
0000
0000
0000
0000
0000
0000
0000
0000
0000
ffff
fffd
0002
fffd
0002
0001
0000
fffd
0000
0000
ffff
0003
0000
0000
fffe
0000
0000
0003
ffff
0001
0000
0001
0000
ffff
0001
0000
0000
0000
0000
0000
0000
0000
0000
0000
0000
0000
0000
0000
0000
0000
0000
0002
0003
0000
ffff
fffd
fffd
fffa
fffd
0000
0001
0004
0000
0000
0000
0001
0000
ffff
ffff
fff9
fffc
fffe
0000
fffd
0001
0000
0000
0000
0000
0000
0000
ffff
0000
0000
0000
0000
0000
0000
0000
0000
0000
ffff
fffe
0002
ffff
fffe
0000
0000
0001
fffd
0006
fffd
0002
0003
0000
fffc
fffb
0013
ffe8
fffe
0014
fff6
0012
0003
000b
0016
000c
0008
fffe
0007
fff9
001c
001c
fff3
0007
fffc
ffff
fff8
fff3
0005
fff9
000f
ffff
fffe
fffe
ffff
0010
fffd
0013
0014
0000
fff2
001d
0017
000d
fffe
0014
fffd
ffe7
000d
0022
fff8
fffe
0006
fff8
ffe7
0017
0003
ffdf
fffc
0014
fff4
ffff
0029
0011
fffc
fffc
fff4
0000
fffd
0004
ffdd
ffe8
0005
0007
fff9
fffe
0001
0002
ffe5
001c
0002
fffe
001c
fff8
0008
fff8
fff7
fff0
0014
fff7
fff7
0004
ffea
ffe7
0018
0013
0004
0000
ffee
fff4
000a
000d
fff6
0003
0001
fffd
fff3
ffe4
fffb
000b
fff2
ffec
fff1
fff5
0001
0003
fff5
fffc
ffe8
fff2
fffb
fffa
000f
0013
000e
000e
0005
ffe5
fff4
ffed
0007
0004
0007
0009
fff1
ffe5
000b
0006
0009
ffdf
fff1
0005
fff5
001d
fff2
0009
fff6
0006
0008
0007
fffd
0003
ffec
0003
001c
ffef
0008
000a
0010
000a
0011
000b
fffc
ffee
ffe8
fff2
000a
0000
0014
0007
ffee
0003
fff6
ffea
ffe7
fff0
0016
fff2
0010
fff7
0004
000a
0012
0007
000b
0006
0014
000b
0001
fff6
fff9
001e
0009
fff1
fff4
000d
0006
ffee
fffa
ffff
0016
fffe
fff6
fff8
ffed
0000
0007
0009
0003
0004
fff0
ffed
ffeb
fff6
0002
fffe
fffd
0002
0010
0008
0000
0007
0004
fffd
0010
fff6
0001
0004
0007
fff7
0007
000c
fffc
0001
fff1
fffe
fff8
000d
0003
0008
0005
001c
000d
0015
fff8
0000
fff3
fffb
fff4
fff5
0012
0004
0015
fffb
fff3
fff4
fff4
ffec
0015
0001
fff5
ffe2
0003
fffd
0007
000c
0011
0014
000a
fff2
000d
000d
fffa
0001
fffa
000c
000a
001e
0004
fffe
fff7
0003
0006
0018
0021
000a
fff4
fff8
fff5
000b
000b
0016
fffc
fffd
fff2
fff5
0004
000f
0015
fff5
fff0
fffd
fffd
fff5
0001
fffc
0007
fff9
fff8
0001
ffff
fffd
0004
fffc
ffeb
fff9
fff5
0000
0004
ffea
000e
0001
0019
fffc
fffc
fffa
fff8
fffd
0007
0011
0010
001b
000c
0002
fffa
0006
0003
fffa
fff9
0009
0005
0014
0005
fffc
000f
fff7
fff7
fff5
fff8
0008
0006
0002
fff9
0003
000b
0005
000a
0004
0001
fff8
fff6
0008
0012
000a
0010
0004
fffc
fff7
0000
fff8
0023
000b
000b
0000
0008
000a
ffff
0005
ffe9
fffb
fff8
001a
0008
fffb
fffd
fffe
fff8
fffa
fff5
fffe
0000
0008
0002
0001
fff8
0002
ffff
0009
001b
0004
fff7
fffd
fff8
0000
0011
0014
0003
0007
fffb
000d
fff9
fffa
0006
fffa
fff9
0000
0011
000c
0003
000d
ffff
000a
fffe
fffa
fff7
fffd
0001
fffd
0008
fffe
0007
ffe9
0002
ffef
fffa
fff9
0005
000c
fffc
000e
000a
0017
ffe8
ffff
fff1
fff4
0004
0016
0006
000c
ffeb
ffef
fff9
0001
0000
fffe
0009
fffa
fffb
fff7
ffec
fffd
ffe5
0004
fff7
fff4
0010
0006
001e
fffd
fffa
fff1
fffd
fffd
0008
fffb
fff2
fff4
0014
0014
0011
000c
fff0
fffc
ffec
fff9
000c
0015
0000
fffe
fffd
ffee
000d
0000
000d
000f
fffa
fffc
0009
fffb
0009
fff2
fff1
0004
ffed
ffee
0011
fffd
0018
0005
0005
0009
fffb
ffec
fffe
fff7
0000
0000
fffa
fffc
0018
0011
0002
fff5
0000
fff5
0008
fffc
fff6
ffff
0008
fffb
fffb
0008
000e
0019
fff4
fffb
0010
fff4
001a
fff8
0005
fffe
ffff
0015
0000
ffff
0002
0006
ffff
0009
000e
001b
fff3
fffa
ffee
fff7
fff7
000d
000b
ffff
fff8
fff5
fff3
0003
0008
fff3
fffa
ffff
0014
000a
0006
fffc
0009
000a
fff5
0000
0009
fffa
000b
ffff
0005
000a
fffd
0000
fffe
0004
fffe
fffe
fffd
0003
0005
0003
ffff
fff4
fff4
fff6
fff1
000a
fffb
fffa
fffe
0004
fffe
fff3
fff4
0000
fffd
ffef
fff3
fff0
0002
0004
ffff
fffb
fff7
0003
fffa
fffa
fff9
0000
0001
0008
0009
fffc
0000
fff5
fff3
0005
0000
fffd
fffe
fffe
fffe
0001
0000
fff8
fffd
ffff
fffe
ffff
fffe
0000
fffe
fffe
0001
0003
fff5
fff7
0000
0003
0009
fffe
0001
fff6
fffd
0006
fffe
0008
fffe
0000
0002
fffc
fff0
0003
fffd
0001
0000
fff6
fff5
fff2
0007
fff5
0009
fffa
0000
000c
fff5
fff0
ffff
fff4
0006
0004
0009
fffc
fff4
fff3
fff3
000a
fffb
fffd
fffa
fffb
0009
fffc
fff7
000b
0006
0005
0008
fff6
0001
fffe
fffd
0002
fffa
0009
fffd
0001
fffe
fff9
fffe
fffd
fffe
fffe
fffd
fffe
fff1
fff4
fff3
0005
000c
0003
fff5
0009
000c
fffa
0009
0001
fff7
fffa
fff5
0002
0006
ffed
fff6
fffd
000a
fff5
fffc
fffd
fffb
fffb
fff9
fff8
fffa
fffe
fffc
fff8
0004
0008
fffe
fffa
ffef
fff8
fffe
fffb
0001
fff7
fffa
ffff
000c
0009
fff4
fffc
fffb
fffd
0004
fff6
fffc
ffef
fff9
ffee
0012
fff0
fff7
ffed
0003
0002
0015
ffee
fffe
fff3
fff1
0016
fff5
fffa
000b
fff7
0003
0013
fff1
fff9
0008
0002
ffff
0008
0009
000c
0003
0005
0014
0011
0009
0007
ffec
fffe
fff1
fffa
000c
ffe6
fff3
fffd
fff9
0007
0000
000e
fff5
000e
fffc
ffe8
000e
fffe
fff6
fffc
0009
fff8
0002
001c
fff3
fff4
0009
ffe3
0003
0001
fff9
ffe7
ffff
000f
0008
000b
fffd
0006
0013
ffe9
0013
000e
fff4
0019
0003
ffff
0011
001b
0015
0009
ffed
001c
0008
0019
0007
0016
ffe9
ffff
0010
0004
0014
000d
0006
0008
fffe
ffed
000e
fffa
fff4
001b
ffee
fff7
000c
fffb
fff0
fff2
0003
0005
000b
fffc
000f
ffe7
fffa
000d
fff1
fffa
fffc
0006
000b
0008
001a
000d
fffa
000b
fff0
fff7
fff1
0016
0004
001e
fff9
ffff
0002
0004
0006
0004
000e
0001
0000
fff1
fff4
0000
ffef
ffe9
fff2
ffed
ffe9
fffb
fff8
fff0
000c
0001
0009
fffa
0005
fff1
0008
0008
fff1
0011
0006
fffd
0004
0015
fff7
0010
0001
0007
0002
fffc
000e
0014
ffec
fffd
fff1
fff6
fffd
0018
0008
fff0
0007
fff7
000b
ffdc
ffed
000a
fff9
0005
0007
0016
fffd
fffd
fffd
fffd
fffd
fffd
fffd
fffd
0002
fffe
fffd
0000
fffd
fffd
fffd
fffd
fffd
fffd
fffd
fffd
fffd
fffd
fffd
fffd
fffd
fffd
fffd
fffd
fffd
fffd
fffd
fffd
fffe
0001
fffd
0000
fffd
fffd
fffd
fffd
fffd
fffd
fffd
fffd
fffd
fffe
fffd
fffd
fffd
fffd
fffe
fffd
fffd
fffd
0000
fffd
fffd
fffd
fffd
fffd
0000
fffd
0000
fffd
fffd
fffd
fffd
fffd
0000
fffd
fffe
fffd
fffd
fffd
fffd
fffd
fffd
fffd
fffd
fffd
fffd
fffd
fffd
fffd
fffd
fffd
fffe
fffe
fffd
fffd
fffd
fffd
0000
fffd
fffe
fffe
fffd
fffd
fffd
fffd
fffe
fffd
fffd
fffd
fffd
fffd
fffd
fffd
fffd
fffd
fffd
fffd
0000
fffd
fffd
fffd
fffd
fffd
fffd
fffd
fffd
fffd
fffd
fffd
fffd
fffd
fffd
fffd
fffd
fffd
fffd
fffd
fffd
fffe
fffd
0000
fffd
fffd
fffd
fffd
fffd
fffd
fffd
fffd
fffe
fffd
fffd
fffd
fffd
fffd
fffd
fffd
fffd
fffd
fffd
fffd
fffd
fffd
fffd
fffd
fffd
fffd
fffd
fffd
fffd
fffd
fffd
fffd
fffd
fffd
fffd
fffd
0000
fffd
0000
fffd
fffe
0000
fffd
0000
fffd
fffd
fffd
fffd
fffd
fffd
fffd
fffd
fffd
fffd
fffd
fffd
fffe
000a
0000
fffc
0000
0006
0000
0000
fffe
0006
fffd
0009
0004
ffff
0004
fffe
fff5
fff7
fffd
0000
ffff
0000
0000
0000
0000
0001
0004
fffb
fff9
fff2
fff3
0000
fffc
0003
0002
000a
fffd
ffff
0008
0001
0003
fffc
ffff
0004
0005
0000
0001
0000
0000
0000
0000
0000
0000
0000
0000
fffa
0001
0000
0000
0000
0000
0000
0000
0000
0000
fff8
fffd
0003
0002
0001
0008
000d
0001
0003
0000
0001
0000
0000
0000
0000
fffa
fffb
fff8
ffff
fffe
0003
0001
fffb
0000
0000
fffa
0000
fff9
0000
000a
0002
0009
fff7
ffff
fff1
ffff
fff4
000d
fff2
0002
fff9
0002
ffff
fffe
fffb
0007
fffd
0000
fffb
fff6
fff9
000c
000d
fff8
0000
0000
0002
0000
0000
fffd
0001
fff4
ffff
fffe
0000
0000
0000
0000
0000
0000
0000
000d
0002
000a
fff8
fff0
fff8
0000
fffb
fff9
000d
fff2
ffff
0005
fffb
0005
ffff
fff8
fff7
fff9
fff0
0008
000c
fff7
ffff
0000
0000
fffd
0000
0000
0001
000b
0004
0000
0006
0000
ffff
0000
0007
0000
0001
fff6
0004
fff8
fffc
fffe
0004
ffff
0001
fff9
fff6
0004
fff9
fff2
fff9
fff0
0002
