001a
ffe7
0006
0013
ffe4
0034
ffd8
ffff
fffa
ffef
0006
ffec
0019
ffef
0003
fffd
0011
fffc
0006
002a
0028
001d
fffd
0006
fffd
ffec
ffec
0009
fff1
fff8
ffba
ffdf
fff3
fff6
000a
fff6
fffc
0011
fff8
fffc
0027
0005
0005
0028
0013
ff63
fff8
0007
0009
0021
ffcf
002f
000b
0054
0030
0004
0032
0004
ffde
ffe0
001c
0014
0006
0026
000a
0039
0012
001e
0005
ffd8
001f
ffd8
fffb
ffea
ffeb
0000
fffc
ffa1
0014
ffcf
fff9
ffd5
ffe7
ffe8
fffe
000a
fff1
fff5
fff5
0045
ffe7
ffa8
0027
fff2
0006
0019
000c
004d
0006
003c
fff3
ffe1
0003
ffcf
0005
fffa
fff8
fff2
fff2
0016
fffa
0007
ffdb
ffde
ffe8
0030
001d
ffdc
ffd8
ffc0
000e
ffff
0032
ffe9
fff2
0010
0003
ffe2
ffcc
ffe0
002b
ffee
000e
fff0
ffec
0013
0013
000b
ffe9
fff5
ffef
fff3
ffd7
0001
fff9
ffe9
0037
0012
0024
0021
0025
fff5
001b
0003
fffb
ffe5
001a
0033
0013
fff2
000f
0033
ffea
001f
ffd6
0011
ffb5
000e
0011
0003
fff7
0003
fffd
0008
0001
000b
fff9
ffe7
ffff
ffe0
0017
000d
001c
ffcb
ffc1
fff5
ffd8
0013
0001
0007
ffcc
fffb
ffe0
0005
ffed
ffef
fffc
ffe9
fffd
000d
0016
ffef
ffff
0037
000c
fff6
ffe3
fffe
001a
ffff
001d
ffda
ffd4
fff3
fffd
0007
0001
0013
0001
fff0
0003
0008
0022
ffe1
fff3
fffe
0000
0000
ffe6
0002
ffb2
ffe2
fff9
0023
0020
002a
ffd8
005b
fff6
0038
0029
0007
0002
fffc
000c
ffcb
000f
ffe4
fff1
ffff
fff7
fff6
fff7
001d
ffd3
ffdf
0001
000d
fff1
0005
0016
0009
0029
ffc1
fff9
001e
0012
002a
ffd5
0042
000a
0031
ffe0
001b
ffe6
fff3
ffde
000c
fff2
fffc
fff1
fff3
fff8
001e
fffd
000d
ffe6
ffe1
005d
000c
fffb
fffa
005f
ffe1
ffde
0025
ffcf
ffff
fff6
fff5
ffad
0023
0016
001c
fffe
ffe7
ffe1
0021
ffe6
0019
fff2
0026
0008
0009
0012
000c
005d
0013
ffd2
ffce
0001
0028
ffff
ffcf
ffe2
0003
0020
001e
fff9
ffd8
0006
ffff
ffea
0004
000e
fff2
0013
0010
fffc
ffd2
fffb
0008
000a
0037
0001
ffff
fff3
0014
ffc0
ffda
0022
0004
000e
000d
ffd0
fff9
000b
0014
ffc7
ffce
0017
0000
0009
0014
0005
ffe8
ffe2
0006
0033
fffe
ffe8
fff4
0008
001f
ffe5
ff7f
ffe3
ffdd
000b
0008
ffde
0001
0024
ffe8
000a
ffc4
ffc5
fffa
000a
000c
0016
0007
000f
0009
002e
fff2
fff5
0011
fff0
fffe
0005
0002
ffe4
ffce
ffff
ffe5
0002
0002
0017
000d
fff0
001d
0005
0001
0040
ffce
fffc
ffea
0009
000f
ffde
fff8
ffb6
0012
ffe4
0003
ffbf
0026
ffea
ffe8
0014
0017
002a
0009
ffdf
001c
0012
ffee
001d
0007
ffe6
fff0
fffc
ffec
ffeb
ffeb
004d
0011
001b
ffe7
0029
0014
0027
0002
005a
ffe5
0000
fffc
ffed
0023
fff3
fffa
002e
ffc4
0029
000a
0005
0014
0007
fffb
ffea
fff7
fffe
ffef
0008
fff0
0020
000b
0013
fffc
003d
000b
fffe
ffde
0020
ffd1
ff90
0000
fff7
fff3
ffef
001e
ffed
0011
ffff
ffe9
004a
0020
ffeb
0030
ffed
0004
0004
ffe5
000d
ffef
ffc0
fff0
ffc1
ffed
0091
0019
002a
002d
ffec
fffb
ffdf
ffff
0006
000b
fff8
001d
ffe9
0027
fff6
ffde
003a
0015
000b
fffd
fffc
ffe8
ffd1
0009
fff3
0012
fffd
0017
ffe3
ffe8
ffb5
0021
0021
ffe8
002d
001c
ffe9
0018
000a
fffe
ffed
ffe6
000d
0026
fff1
0000
000c
0016
fff6
ffc6
fff9
0023
0026
0015
0003
0055
fffb
0001
fff8
fffc
000d
000e
0001
0009
0004
ffe2
0019
ffec
fff5
ffed
ffdc
fff0
0004
fff7
0021
ffd5
0009
fffe
0016
ffe5
fffb
ffec
fff5
fff9
fffe
fff0
000d
0019
ffec
fff6
fffb
fffd
fff0
fffc
0016
0021
0019
fff6
001f
fff4
001c
fff3
0027
0012
fffa
fffc
ffec
0012
fff3
001a
ffe9
0054
fffd
0013
0016
ffda
fffc
002b
fffc
fff8
0015
0016
0003
ffd8
001e
0017
0028
fffc
ffe1
ffdc
0014
0000
0007
0010
0021
ffce
0014
ffca
0007
0011
fffb
0017
ffcb
003b
000e
0005
fff5
ffea
fff5
0002
001b
0019
0032
ffec
ffff
ffff
0006
ffc8
000b
0003
0008
fffc
000a
fff8
ffff
ffd5
002f
fff1
0017
ffd6
ffd5
fffa
0000
000b
ffd9
0004
ffff
0011
ffe1
fff7
fff3
0013
0022
fffb
fffd
0017
fff4
ffea
ffe8
ffdf
0011
0027
ffdd
ff93
fffb
001e
0001
ffe3
fffc
ffe8
0004
0002
ffd5
0004
000e
0007
fffd
003a
0020
ffbc
ffec
0008
fff9
fff1
0008
006a
0002
0003
0012
001b
0002
0030
ffee
ffdb
fff7
fffd
000d
ffd0
0021
0017
0010
000f
ffd6
ffb0
ffee
fffc
fffe
ffdd
0006
0011
fffb
0005
000f
002b
fffb
ffd0
0008
001b
0011
ffb8
ffe1
ffdf
ffe3
0003
002b
0025
0004
0003
ffff
0048
0006
0015
0003
ffee
fffb
fff0
ffde
0010
0022
0041
0007
fff8
ffe2
fffa
fffe
ffdb
002f
0026
fffb
000e
0004
fff6
fffb
fffb
0005
ffff
ffef
0002
0004
0003
0001
0006
ffcc
001a
0016
ffff
ffbc
0004
0002
0021
0046
ffc0
0000
ffe7
0005
fff5
ffd0
ffee
ffe7
fffb
fff2
0017
fff9
0000
002d
0008
fff8
fffd
ffd9
0027
ffde
001b
000c
0008
001d
ffe7
ffff
ffff
0001
ffec
fff8
000a
0044
ffc0
ffef
ffd1
fffc
0014
ffe4
ffed
fff3
0005
ffdc
000a
0016
000b
0011
0014
ffe5
001d
fff1
0004
000c
ffec
000c
0003
ffea
003c
000b
0004
0007
0001
000d
fff2
000a
ffe2
001d
ffff
000e
ffdd
ffb6
ffc7
0003
0011
fff7
000e
000c
0008
0016
0016
003e
002a
000d
fffd
0018
fff4
ffd0
fff8
0022
000c
000e
0030
0005
0001
0014
fffb
0007
ffe5
fffb
0001
ffe1
000e
fff7
000b
0008
ffc6
fffb
ffb4
0009
000e
0016
ffd0
0031
ffc6
0025
000f
0005
0013
000a
0007
ffea
fffd
fff6
0005
ffe6
0017
0003
000f
000c
ffe0
ffe5
ffea
0003
0011
fffa
fffb
ffda
0009
0006
ffc0
ffea
ffb7
ffec
fffd
0003
000c
ffec
ffee
0009
ffeb
000d
0053
0022
ffec
fffd
fffa
ffd2
fffa
001a
0005
ffe4
0031
0006
fffd
000f
0005
fff8
ffe2
0000
fff5
fff0
fff3
0019
ffdc
0014
0001
001f
fff3
fff7
0007
0046
fff1
0011
fff1
fff1
000f
0029
ffee
000f
fffd
ffdf
0056
0002
ffbb
ffff
006e
fffa
ffda
ffcb
ffcc
0017
0013
0012
ffec
fffc
ffea
fff7
000f
fff9
000f
ffcc
ffdf
ffcf
ffea
ffc6
ffe2
0004
0026
fff0
ffe6
001c
001a
ffe4
004d
001f
0000
fffe
0024
0000
fffa
fff3
fffe
0015
ffea
0000
000e
0010
0004
0004
0007
000b
0048
ffe6
0010
fff5
fff7
fffe
ffe3
ffe6
fffe
0023
0011
ffe8
0000
0025
0004
0016
000c
fff1
ffef
0000
fff6
0013
000d
0001
0017
ffec
ffff
0017
0034
001c
fffd
001c
000c
ffb1
ffeb
ffca
ff9f
001f
001b
fffd
ffc0
fffd
ffdb
0013
ffe6
0005
fff4
0012
ffd3
0005
ffdc
001d
fff7
000a
0027
ffd1
ffd3
ffff
0004
ffe6
ffe9
001a
ffd3
fff4
001f
0006
ffd6
000c
ffea
ffee
ffe7
0011
fffc
0009
0008
0018
000e
ffe5
0020
0023
ffd5
0016
ffde
0001
002d
0019
ffd8
fff5
ffec
0016
ffd9
fff8
002e
ffec
fff8
0022
ffea
000b
0010
0001
0021
0006
0009
fffa
fff1
0008
ffcf
0034
ffef
fffb
ffe5
004a
fff7
ffe6
0020
000b
ffdb
0009
0008
000b
fff9
fffc
0001
0010
0018
0000
fff8
002e
000c
ffe7
fff4
0004
003c
0017
fff9
ffdc
0021
ffff
0005
ffff
001b
0019
001c
000d
0032
0029
003a
0004
0008
ffcb
0002
ffd4
ffe9
ffd3
fff3
ffc7
0015
ffeb
ffe6
0001
0002
0005
0017
002d
0013
001b
0042
0010
fff8
0017
0014
ffcc
0009
0019
000c
ffea
0021
0008
0033
fff4
0037
0027
ffd3
ffcf
fff3
fff4
ffe1
0015
001c
fff8
fff3
ffe5
fff4
ffe8
fffa
0007
fff4
ffb2
0029
ffcd
001c
ffb9
0001
001b
0011
fffc
ffea
0005
ffe1
0031
fff4
0001
ffe3
0016
0008
002f
ffda
0010
001e
0034
ffed
000a
ffeb
ffed
0008
ffed
0013
0053
0028
001e
000e
000f
ffe8
000e
0035
0006
ffff
000f
0007
ffea
0005
0005
fffc
ffee
0026
001c
0016
000c
ffdd
fff0
fff5
0012
0005
0015
0000
000e
0019
0016
001d
fff8
ffff
fff3
0002
ffce
0004
000d
ffc3
0013
0017
ffdc
0012
ffdb
ffb8
ffb2
fff6
0010
ffe4
ffcb
ffd2
ffef
0007
ffe1
fffd
0019
0002
0000
0010
ffb2
fff2
0008
ffe3
0016
fff1
0000
0000
0000
0000
0000
0000
0000
0000
0000
0000
0000
0000
0000
0000
0000
0000
0000
0000
0000
0000
0000
0000
0000
0000
0000
0000
0000
0000
0000
0000
0000
0000
0000
0000
0000
0000
0000
0000
0000
0000
0000
0000
0000
0000
0000
0000
0000
0000
0000
0000
0000
0000
0000
0000
0000
0000
0000
0000
0000
0000
0000
0000
0000
0000
0000
0000
0000
0000
0000
0000
0000
0000
0000
0000
0000
0000
0000
0000
0000
0000
0000
0000
0000
0000
0000
0000
0000
0000
0000
0000
0000
0000
0000
0000
0000
0000
0000
0000
0000
0000
0000
0000
0000
0000
0000
0000
0000
0000
0000
0000
0000
0000
0000
0000
0000
0000
0000
0000
0000
0000
0000
0000
0000
0000
0000
0000
0000
0000
0000
0000
0000
0000
0000
0000
0000
0000
0000
0000
0000
0000
0000
0000
0000
0000
0000
0000
0000
0000
0000
0000
0000
0000
0000
0000
0000
0000
0000
0000
0000
0000
0000
0000
0000
0000
0000
0000
0000
0000
0000
0000
0000
0000
0000
0000
0000
0000
0000
0000
0000
0000
0000
0000
0000
0000
0000
0000
0000
0000
0000
0000
0000
0000
ffe3
002e
0008
ffec
002b
fff4
ffdc
000a
fffd
0007
0013
ffff
ffd9
0012
000d
ffef
000d
fff1
0015
fff5
ffff
0011
0013
0008
ffe6
0016
0015
ffff
ffe7
ffe0
ffdd
0029
0004
0013
ffab
fffd
fff8
0000
0023
fffc
001b
0003
0014
0026
003a
ffc0
ffec
002d
fff2
0032
002c
ffdf
fff6
001e
fff0
ffeb
fffa
0011
ffef
ffdf
fff7
fff6
fff5
000d
fff2
000f
000f
0016
fffd
0032
ffc1
ffff
0009
fff7
ffff
003b
001c
ffdf
ffea
0024
ffff
fffe
ffce
ffeb
fff0
fffd
0005
0018
0008
0010
ffe4
005f
fff6
ffee
fff5
ffe0
ffd7
fff7
0011
0020
0015
fffd
0035
0014
fff3
fff9
ffe7
fff7
0042
fffd
000e
ffe4
ffc1
0006
0016
fff9
001f
0016
fffa
fffe
0001
001d
0012
0011
ffc1
fffe
ffdb
ffdb
ffee
ffd4
ffe7
0029
fff7
fff3
000c
0002
0012
0002
fffb
ffda
fffb
ffdb
ffed
0014
0016
0015
000c
ffea
0016
0001
0005
fffb
fff6
ffe8
fff8
002a
0010
0010
ffd0
002d
fff6
0016
fff9
ffcb
fff3
fff4
fff6
0030
000e
ffc9
ffe1
002d
0009
ffba
fffc
fff0
fffd
ffcb
fffd
ffff
0002
ffc3
000e
0009
0017
000b
000d
ffe0
ffef
ffe7
0018
fffd
ffce
ffce
0003
0016
fffe
000c
fff7
0028
fff0
0040
fffa
ffc7
0000
fff6
0000
fff9
0000
0030
ffe3
0019
0028
0005
0005
0021
fff0
0014
ffcf
fff5
fff6
fffe
ffb4
ffd8
fffb
0017
0028
ffdd
0028
0006
000a
001a
fff1
ffdd
ffef
0033
000a
ffd2
0014
0008
004e
0018
001b
fff5
000d
ffe6
0006
0000
ffdd
0004
fffa
fff6
ffff
001d
0040
fff6
0029
ffe3
ffe0
ffe9
ffdc
002b
ffff
ffe4
0004
fffb
ffe5
0019
000e
000c
0019
ffd0
ffd8
0039
fffd
0014
0001
fff6
000e
0001
0016
ffd0
fffc
0002
ffec
fff4
0005
fff2
000f
fff8
000f
ffe8
ffd3
0008
ffde
ffe1
ffd1
0011
ffce
0001
0007
0011
0009
0003
001b
0045
ffe1
ffd1
000d
fff2
0017
ffff
ffd7
000b
ffe6
fff9
0018
0010
005b
ffd1
0009
fffc
0008
0067
0002
0014
fff3
fffc
ffcc
0002
fff2
001e
0009
0000
ffdf
001b
fff2
ffe8
001c
0056
0029
fff3
0022
0005
ffe2
001e
000f
fff9
fff6
001b
0017
ffec
ffe2
000f
0003
0008
fff8
000e
ffb6
ffe1
0020
ffd4
fff8
003d
0009
0009
000a
ffe3
000a
0061
ffea
000e
fff8
ffdd
0013
ffa8
0016
000a
0011
fff5
fffa
0018
ffca
ffd7
ffde
0004
ffe7
001d
fff9
0000
ffed
ffe2
ffdf
0011
0002
0008
000e
0013
0013
ffed
fffb
0009
ffd7
0017
fffa
0031
ffd1
ffed
fff9
fff3
fff0
000d
0004
0018
ffc8
0007
ffeb
ffff
000b
0009
ffb9
0018
ffda
0000
0002
ffde
fff5
fff1
0013
ffe7
0004
0015
0004
000b
fff5
000b
0001
0066
001a
0002
0024
0006
fff0
003d
0024
ffec
0018
001c
0023
fff7
003a
fff8
0024
ffca
ffff
ffed
0013
ffe1
fff6
ffeb
000f
ffdb
ffff
0015
ffee
ffe4
ffe9
0011
0038
ffea
ffea
fff2
fff4
002b
000c
ffdd
000f
ffbd
fffa
ffec
fff5
0020
001e
0012
fffc
ffed
002f
ffe8
ffe1
0024
ffec
000b
ffe0
fffe
000b
0000
ffbc
ffd0
001e
0044
001a
ffed
fffb
ffc9
001f
000b
0012
0010
ffac
fffe
0006
fff8
ffd8
ffde
0012
ffec
0015
ffe9
0001
fff0
0016
000b
ffff
0015
0009
002c
ffcd
0009
000b
ffd4
ffdd
ffff
ffdd
005d
ffef
fffc
0000
fff5
000a
ffed
0020
fffc
0014
001e
0004
000f
0029
0008
0016
0001
ffd7
fffe
0013
fff3
0004
fff4
001f
ffef
0003
ffe8
001a
fff0
0018
fffe
ffea
0002
ffef
ffb1
ffd9
ffe2
ffe9
0006
002e
ffea
ffdc
0004
ffdc
0014
ffdc
0003
001d
fff7
ffed
0023
001c
0015
0015
000e
ffd7
0016
ffff
fff9
0004
000a
fff5
fff1
0010
0026
0011
001b
ffee
0003
0012
fffe
fff4
fffd
ffee
0003
0009
0027
ffe6
001d
0007
ffeb
fff1
0019
fff2
ffdf
ffff
ffef
003c
fffd
0000
0018
001b
0016
ffff
ffeb
0009
ffeb
ffd6
002d
fff3
0007
ffef
0004
ffd9
000a
0035
001a
001d
ffef
0011
ffdc
fff5
0031
ffe4
ffe8
fffc
fff6
ffe9
fffa
002d
fffa
fffc
0007
0031
0030
fff6
0005
fffd
ffee
0000
0001
0022
fff2
0000
0025
ffdc
ffed
0016
ffef
0007
ffeb
0024
000b
ffed
0002
fff1
ffea
ffe1
fffe
ffc9
ffff
005b
ffee
0004
fff1
001d
0028
001d
ffdd
000e
0001
0010
000a
000c
000a
ffc7
001c
ffc3
ffec
008c
0000
0007
fffd
0007
0061
0011
ffe2
0008
fffe
ffef
002a
0011
0011
0014
ffe6
ffe2
0041
0004
ffd7
0008
0013
ffed
fffc
0009
0006
ffe0
ffe5
000b
ffe9
0031
ffea
fffe
000a
ffdd
fffd
000c
ffe6
ffed
000f
ffd9
0013
0026
0007
ffe3
fff6
ffec
fffb
000e
ffe4
0003
0021
0007
0020
fff1
ffc9
0006
ffad
001c
0006
001d
fff5
fffb
fff9
fff7
0009
0000
0000
0000
0000
0000
0000
0000
0000
0000
0000
0000
0000
0000
0000
0000
0000
0000
0000
0000
0000
0000
0000
0000
0000
0000
0000
0000
0000
0000
0000
0000
0000
0000
0000
0000
0000
0000
0000
0000
0000
0000
0000
0000
0000
0000
0000
0000
0000
0000
0000
0000
0000
0000
0000
0000
0000
0000
0000
0000
0000
0000
0000
0000
0000
0000
0000
0000
0000
0000
0000
0000
0000
0000
0000
0000
0000
0000
0000
0000
0000
0000
0000
0000
0000
0000
0000
0000
0000
0000
0000
0000
0000
0000
0000
0000
0000
0000
0000
0000
0000
0000
0000
0000
0000
0000
0000
0000
0000
0000
0000
0000
0000
0000
0000
0000
0000
0000
0000
0000
0000
0000
0000
0000
0000
0000
0000
0000
0000
0000
0000
0000
0000
0000
0000
0000
0000
0000
0000
0000
0000
0000
0000
0000
0000
0000
0000
0000
0000
0000
0000
0000
0000
0000
0000
0000
0000
0000
0000
0000
0000
0000
0000
0000
0000
0000
0000
0000
0000
0000
0000
0000
0000
0000
0000
0000
0000
0000
0000
0000
0000
0000
0000
0000
0000
0000
0000
0000
0000
0000
0000
0000
0000
ffe4
0026
ffec
0003
0024
fffa
ffdc
fffa
0011
fff7
ffc7
0004
000b
ffff
000b
0000
0004
fffb
ffc2
003d
ffdb
000b
ffec
0003
0007
0000
ffff
0016
0008
fff6
fffc
fff9
fffe
0012
ffeb
fff9
ff8a
0002
ffe8
ffe6
0001
0011
ffdf
0032
0015
000e
fff6
000b
0016
fff2
0020
ffc7
fff3
0017
000f
ffe3
fffd
000a
0008
0014
fffa
ffec
ffdf
000b
ffdf
ffbe
fff8
0005
0006
001d
ffe1
000b
ffe9
0010
ffef
003d
0012
fffe
0009
002a
ffe0
0008
0009
ffff
fffe
0007
ffc8
fffa
ffee
fffa
0011
0024
000d
fff1
ffe2
0009
0018
ffee
0018
fff2
0031
fffc
0003
002c
000e
0008
ffe2
0006
ffef
ffed
000e
fff4
000b
fff9
ffef
0022
fffc
0013
ffe5
ffe2
fff9
0024
ffec
002a
ffc0
0007
ffdb
001a
001d
ffe6
ffdc
003c
fff2
ffcb
000d
fff1
fff8
fff4
fffd
ffdb
0009
ffda
fff1
ffef
0023
000e
ffeb
fff7
fff0
001b
ffe6
0000
fff5
ffbc
ffde
fff2
fff8
004c
000e
0030
fffd
ffee
002d
ffd5
0014
fffa
001a
000a
001a
ffdf
000f
001f
000e
ffc0
ffee
ffe8
0025
ffaf
000a
ffe8
0002
0020
ffe2
0029
0029
0010
0020
ffe6
000a
ffd9
0012
0005
0022
0016
ffdb
000b
001e
0017
0006
0005
fff5
ffdb
0046
003c
fff1
0001
ffdd
ffdd
fffe
ffe0
0068
fff1
ffdf
0004
0024
0006
fff3
ffbe
0007
0009
fff2
fffb
0006
ffee
fffd
0004
ffea
001d
fffd
fff6
ffde
fffe
0006
ffd6
0021
ffe6
fff2
fff4
000d
fffb
0002
fffa
fff2
ffe7
fffd
ffe1
000a
fffa
0009
000c
0003
ffdb
ffe6
000b
0035
001b
ffea
003b
ffee
ffe7
0001
0017
fffc
0008
0000
ffde
001b
ffdd
0004
fff4
0012
0009
fffd
ffdb
ffe5
ffe2
ffc6
001c
ffd6
0009
0004
ffd8
fff8
000f
0005
0024
fff8
0003
ffff
0003
ffe9
002e
0021
fffd
0015
0051
0016
ffff
0019
ffef
fff9
fffc
ffff
fff2
ffd2
ffda
fff7
fff4
ffd0
0033
ffd8
0002
fff8
fffd
001f
0009
0015
001f
005e
008f
fff3
fffc
0026
ffad
fffa
0020
0010
0002
fff8
ffed
000b
001d
ffef
0004
0012
ffe6
ffeb
0010
0045
ffb7
fff6
ff96
0000
000a
0013
fff4
0035
ffe5
ffe9
0014
0018
000e
000f
000e
ffbe
0011
fffc
ffde
0023
000e
0006
fff4
0002
0002
ffe6
fff7
fffd
001b
0006
fff1
fff7
0006
fffa
0005
ffd4
0018
ffc7
ffee
0004
fff4
ffe2
fffb
002a
ffe0
001c
ffec
0026
fff1
ffd6
0005
0001
0000
0010
fffc
002f
0012
fffc
fffa
fff2
000e
0000
0007
002f
ffec
0018
000a
0009
fff2
ffff
0020
0009
ffea
0004
fff9
0007
000c
fff8
fff5
0002
0007
004a
0011
0026
fff1
000a
0011
002d
ffc9
fffb
0012
ffe0
0008
0007
fffc
fffc
002d
0006
ffe5
0000
0009
ffea
ffd1
ffee
fffc
000c
0012
ffba
ffed
fff6
0028
ffde
0024
fff6
0000
000d
fffb
fff9
0017
fffc
fff6
fff8
fff8
fffd
0006
0014
fff6
ffe4
000b
ffdf
0019
0032
0016
fff2
000d
fff2
fff4
fff5
0026
000e
0008
ffee
0034
ffef
0001
ffe9
fff2
000a
ffc1
000c
fffa
0008
fffa
0019
0003
fffc
0008
0008
001c
fff2
fffb
fffa
0002
0020
0038
0017
ffe6
002c
ffdb
0030
001a
0001
ff90
ffe5
0012
0026
ffbf
0008
001a
0000
0005
0015
fff9
fff4
ffe6
0001
001b
fffa
0012
ffea
0019
0026
ffd4
001f
ffdd
002f
000a
001b
0018
0010
0062
0006
ffd5
fffe
ffe9
fffc
ffee
ffd4
000e
ffdc
0007
ffe3
fff4
fffb
0000
fff6
ffeb
fff0
0019
000d
0038
ffe7
000d
0005
ffd3
fffd
ffd8
002c
ffe1
0001
fff1
ffc2
fff6
ffce
002a
ffde
0010
0000
0000
0000
0000
0000
0000
0000
0000
0000
0000
0000
0000
0000
0000
0000
0000
0000
0000
0000
0000
0000
0000
0000
0000
0000
0000
0000
0000
0000
0000
0000
0000
0000
0000
0000
0000
0000
0000
0000
0000
0000
0000
0000
0000
0000
0000
0000
0000
0000
0000
0000
0000
0000
0000
0000
0000
0000
0000
0000
0000
0000
0000
0000
0000
0000
0000
0000
0000
0000
0000
0000
0000
0000
0000
0000
0000
0000
0000
0000
0000
0000
0000
0000
0000
0000
0000
0000
0000
0000
0000
0000
0000
0000
0000
0000
0000
0000
0000
0000
0000
0000
0000
0000
0000
0000
0000
0000
0000
0000
0000
0000
0000
0000
0000
0000
0000
0000
0000
0000
0000
0000
0000
0000
0000
0000
0000
0000
0000
0000
0000
0000
0000
0000
0000
0000
0000
0000
0000
0000
0000
0000
0000
0000
0000
0000
0000
0000
0000
0000
0000
0000
0000
0000
0000
0000
0000
0000
0000
0000
0000
0000
0000
0000
0000
0000
0000
0000
0000
0000
0000
0000
0000
0000
0000
0000
0000
0000
0000
0000
0000
0000
0000
0000
0000
0000
0000
0000
0000
0000
0000
0000
0000
ffec
000d
001f
0009
001c
fffc
001b
fffb
0011
0016
ffc5
ffb4
fff8
0011
0007
0009
ffe9
0015
ffed
fff6
0011
0006
0000
0004
0000
000f
ffe7
0003
ffe3
ffef
002e
0022
0006
fff7
fff0
fff6
004f
000c
0024
0016
ffe4
001c
fff9
0008
fff4
fff4
ffe7
0005
fff6
0008
0015
ffce
fff0
fff9
ffd5
0008
ffff
ffdd
0002
fff1
0004
0019
fffa
0009
fff2
ffc2
fff3
0003
ffd9
0036
ffed
0048
0018
0044
000e
0007
ffeb
0011
ffe2
fffe
0001
001e
fffd
0008
0021
ffe7
0027
0013
fff7
0009
000d
002b
ffe5
0009
0014
fff6
ffee
ffd4
0005
ffaf
ffcd
001c
0003
0013
fffc
0000
ffe4
000e
0039
0008
0004
0005
0049
0018
fff2
ffc2
0019
fff0
fffa
0039
0007
ffef
ffdc
fff8
003b
fff2
fffc
0028
0029
0040
ffe6
0042
0002
0013
fff4
fff8
ffe0
0009
fffd
ffe2
0001
001a
0008
0022
000c
001a
0001
001c
ffec
ff94
001d
fff8
ffe7
001c
0008
001c
0011
fff2
ffe7
fffb
fff7
ffe4
fff9
ffe3
fff3
001b
002b
0021
fffc
000c
fff4
002b
fff5
000d
0010
0011
ffe5
0022
0008
ffdf
ffee
ffe9
0018
002e
0039
0008
0004
0003
ffed
001a
000e
000a
0036
ffe6
ffac
0012
0005
0009
fffc
ffef
001c
000c
ffff
ffd8
ffee
fff4
fffc
001d
0001
fffd
ffea
000e
fff2
ffff
001b
000f
0018
0001
0009
001e
000c
fff4
002b
ffdf
0022
fff8
ffea
000a
ffe7
ffe9
ffe3
ffdf
0018
001f
ffcb
0045
000e
ffc6
0011
001e
0019
0004
ffff
ffff
000b
fff9
001c
fffd
ffb9
ffed
ffff
ffe8
ffd4
ffe1
0011
002f
fff0
fff1
fffa
fffd
0016
0015
002e
fffa
ffe4
002a
ffed
0031
0013
ffe2
0016
fffc
0019
0019
0005
002a
fff2
0013
ffb1
0004
000e
ffd8
ffe1
ffde
0035
0022
fffb
002f
0035
ffd6
001d
0003
fff7
fff7
ffa0
002c
0024
000d
ffe7
0012
fffa
000b
ffef
ffd1
0042
0028
ffed
ffff
0006
0017
0008
0003
ffe4
000e
fff7
0013
ffe1
fff2
ffa5
0030
0017
0011
ffee
0049
fffe
fffa
0007
ffe9
0003
000d
fff4
ffc2
0008
ffd5
0017
0004
ffe8
0024
003b
0006
0003
0031
fff3
ffeb
fff0
000a
fff2
ffeb
ffd9
0035
0008
ffff
fffe
000f
ffc5
fff6
ffe9
000a
0015
fff7
fffa
0012
0001
fffe
0003
002d
0012
0010
ffd7
0004
0023
fffb
000a
001a
fff1
004f
0027
0021
ffe9
fff6
ffe5
0001
fffd
0013
fffc
ffd9
000e
fffe
0008
0002
fffd
0000
fff6
0009
fffd
fff4
fffc
ffd2
0014
ffeb
0009
001a
fff4
001c
000d
0000
0008
fff1
ffed
fffd
ffee
0004
0018
ffea
ffe0
ffe0
002a
000f
0005
ffee
ffea
fff5
0045
fff5
001e
fff4
ffee
0059
000d
ffd9
000d
fffa
0019
001a
0026
ffea
0021
0027
0006
0006
0000
0018
ffe1
fff7
0009
ffd0
0067
0031
ffdc
0012
0002
001e
0005
ffe0
ffc9
0039
fff6
ffd2
fffb
004a
000e
fff2
0015
ffec
0017
ffdc
0002
ffc2
fff4
0013
ffc9
ffeb
ffe0
000e
fffe
fffc
0005
ffe3
fff4
0028
ffea
000b
000c
002d
0016
000c
000a
0007
000f
0002
001d
fff0
ffe1
ffd8
ffed
fff0
000b
001b
ffd8
000d
0014
0014
ffd2
fffc
ffea
0002
003f
0005
ffe8
0017
0045
004e
0008
ffdf
fffd
fffb
0013
ffeb
fff3
ffe6
000e
fff7
0003
ffd2
fff5
fff3
ffe5
ffd5
000c
0021
001f
0001
003b
003a
fffb
ffc8
fffb
ffef
fffd
0030
001c
0043
fffd
0007
fffe
fff7
000b
fff1
ffec
ffde
0004
0010
0001
ffe7
0014
005e
0014
ffdf
fff6
0020
fffc
ffee
fffa
fffe
000a
ffeb
0000
0023
fff4
fff8
ffed
ffeb
000b
0004
ffd9
0022
0024
fff7
ffec
fff6
0021
002b
ffed
0012
001d
ffc6
0023
0033
ffdb
fffd
fffb
0005
fff8
fffb
000d
ffbe
0008
0007
000a
ffe9
ffcf
fff3
0042
0005
0005
0006
0011
fff1
ffec
ffdd
ffe0
0018
0014
0000
0040
0007
ffef
ffeb
0014
fff9
fff7
ffe1
fff8
ffeb
ffca
0027
000e
0047
001a
ffe5
fff6
002b
ffe7
0003
fff7
ffe4
0011
fffa
fff3
ffe3
ffe1
001b
003a
0014
0003
0025
fffc
fffe
0014
fff3
fffc
fff2
001a
ffd3
000d
ffe1
fff8
ffe0
ffe9
0002
0004
0007
0018
0006
ffee
0019
0003
0022
ffe5
001e
fffc
ffec
fff7
ffda
fffa
0015
0042
fffa
0017
001f
fff9
fff2
0006
0000
002a
0010
fff3
0002
ffe7
fff9
000a
0006
ffe6
ffee
ffe4
0031
0001
ffeb
ffdd
ffdf
000b
ffca
ffcb
ffc1
0014
ffdc
ffcc
ffb4
0004
ffe4
000c
fff0
fff8
fff0
001f
0028
0014
ffe6
0018
ffe7
0015
0004
ffb8
ffb5
ffe0
0020
ffe3
fff3
ffed
0027
fffa
0031
fff9
ffea
fffb
0003
ffe6
0026
0004
fff0
0000
0021
ffeb
001c
0000
0002
ffeb
ffff
001f
ffd0
0005
0002
0015
ffe2
0001
0023
0012
fff9
ffe8
ffef
ffd8
ffdb
003c
fffc
0018
ffef
0005
0005
001f
0004
ffdb
fffb
0004
fff5
0012
000d
0001
fffb
0030
003c
fff8
ffe0
fff6
0002
ffe8
fff2
fff4
fff8
0003
0008
ffe8
fff2
0018
ffff
0010
ffeb
fff9
0008
0035
fff4
001e
fffc
ffed
001f
0011
ffee
ffc2
fff0
ffde
0009
0002
ff9f
fffd
008a
fff2
000e
0010
ffd1
0010
0013
fffc
ffbc
000c
ffd3
fff2
ffe9
0032
0019
ffed
0004
ffa9
000e
fffd
ffcd
fffe
ffeb
fffb
ffff
0014
ffdf
ffef
0044
001a
ffd4
fff4
0022
000d
002b
ffff
0014
0005
002a
ffe9
0019
fff7
ffdc
0023
ffc4
001b
fff3
0002
0022
fff8
0008
002c
0002
0003
fff0
0000
0008
ffc7
0026
ffed
ffed
fffb
0009
fff3
fffa
0000
fffe
0001
0030
fff3
ffe6
0001
001e
fff9
ffff
0015
0001
ffc3
0010
0026
0008
ffe2
0023
001d
0011
ffe7
ffc5
ffff
ffd8
0005
000e
ffd6
0000
001c
001b
0016
0015
0018
fff1
ffd8
fff0
fffa
ffd6
ffe4
0021
ffe0
0005
0001
0004
0020
fff0
ffdc
0012
0015
ffed
0012
ffd8
0004
000c
0025
fff5
0011
ffe4
fffb
0002
000b
ffab
0008
002d
000a
000a
fff7
0040
0013
0000
000f
0008
ffcd
000b
fff0
0015
0021
000e
ffef
0010
002b
ffed
0000
0000
0000
0000
0000
0000
0000
0000
0000
0000
0000
0000
0000
0000
0000
0000
0000
0000
0000
0000
0000
0000
0000
0000
0000
0000
0000
0000
0000
0000
0000
0000
0000
0000
0000
0000
0000
0000
0000
0000
0000
0000
0000
0000
0000
0000
0000
0000
0000
0000
0000
0000
0000
0000
0000
0000
0000
0000
0000
0000
0000
0000
0000
0000
0000
0000
0000
0000
0000
0000
0000
0000
0000
0000
0000
0000
0000
0000
0000
0000
0000
0000
0000
0000
0000
0000
0000
0000
0000
0000
0000
0000
0000
0000
0000
0000
0000
0000
0000
0000
0000
0000
0000
0000
0000
0000
0000
0000
0000
0000
0000
0000
0000
0000
0000
0000
0000
0000
0000
0000
0000
0000
0000
0000
0000
0000
0000
0000
0000
0000
0000
0000
0000
0000
0000
0000
0000
0000
0000
0000
0000
0000
0000
0000
0000
0000
0000
0000
0000
0000
0000
0000
0000
0000
0000
0000
0000
0000
0000
0000
0000
0000
0000
0000
0000
0000
0000
0000
0000
0000
0000
0000
0000
0000
0000
0000
0000
0000
0000
0000
0000
0000
0000
0000
0000
0000
0000
0000
0000
0000
0000
0000
0035
ffca
ffca
ffe7
fff8
001f
000a
0034
0009
fff5
fff4
001d
fff1
ffdb
fffa
0031
000a
0017
ffe2
ffd5
000e
0033
0003
ffd8
0000
ffe6
0010
0018
fff3
ffef
0008
ffa9
0033
ffef
000f
0004
000f
ffd6
0005
fff2
fff0
000b
0001
ffca
fff4
0027
fff7
000c
fff7
fff7
fff9
0020
0002
fffc
0023
001b
0002
0009
fffe
ffe9
ffdf
ffff
fff1
0024
ffef
000d
000e
0010
fff0
000e
fffc
ffe4
ffff
000c
ffe0
fff7
0014
ffe6
002a
000c
0004
fff0
002b
000b
000c
0020
fff5
ffe0
0014
0025
fff9
ffb2
001e
0018
0013
0028
001d
fff2
0025
0046
0017
000f
ffd9
ffe6
0013
fffc
0005
0008
001d
000b
fffd
0010
0011
0011
ffeb
0005
001b
ffca
0018
ffde
fffb
0007
fff2
ffd5
0084
ffd6
ffdd
0027
0013
ffdc
ffeb
ffd8
0002
ffda
fff9
0012
ffed
ffdf
000f
fff6
ffff
0022
fffe
000d
0003
ffdf
0025
fff9
000d
005a
fff5
ffcb
fff3
fffe
fff5
fff2
001c
0016
0023
000a
0004
0000
0010
0007
ffe7
0017
0000
ffd2
0005
0019
fffa
ffe6
000d
0037
0017
0023
ffeb
0003
0027
fff7
000d
0013
ffdc
0019
0008
0009
000a
0011
0000
fff1
ffe9
0000
fff5
0024
0007
000b
0029
ffe3
ffff
000e
0001
fff6
000d
fffd
fff5
0027
0000
000e
000f
ffe3
ffe6
ffd8
ffe5
fff2
ffed
0009
0000
ffdd
0036
0008
fff1
001c
0024
000c
fff6
fff7
ffe6
0015
fff6
0017
ffc5
0000
0022
0010
0001
002d
0014
0038
fff1
fff2
ffc0
ffef
ffe8
ffee
0007
0011
ffe6
001d
0001
0007
fff8
0000
0000
000c
ffdb
fffe
0001
fffa
0028
ffec
000c
0033
0032
ffef
0002
ffe8
0000
0030
fff9
000b
fff5
000c
fffe
fffe
ffee
000f
0015
ffe4
0033
0006
fff2
002a
fffd
0028
ffe1
fff0
ffff
ffd8
fff4
0003
fff1
001b
ffd7
fff7
001f
0007
0015
0002
fff2
0001
0032
fff8
0001
ffe2
fff5
ffc3
0029
0018
ffe7
001a
0013
0015
0024
0012
fffb
000f
001c
ffde
ffc4
0006
fffd
0004
ffea
0037
0008
0033
0008
0002
0005
fff1
fffd
ffe0
0016
ffec
001d
003b
0023
0008
ffda
0000
ffa6
ffce
ffea
ffff
0005
ffdd
ffeb
ffdd
0007
ffe9
ffeb
002a
fff3
0014
ffe9
ffe9
fffc
0004
002a
002a
0001
002c
ffe4
fff0
ffec
fff2
0001
ffd9
000c
ffcb
0016
0010
ffe5
0006
000b
fff5
0020
0005
000b
ffee
001a
ffd4
002d
000d
0018
fffc
ffed
001e
0016
0017
0016
ffdf
ffd8
fff2
003c
ffe3
fff3
0031
0001
ffd4
fff5
0002
fff9
0023
000f
0007
fff4
fffa
ffec
ffe3
0000
0025
ffe1
ffd3
ffed
000d
0019
ffe7
ffd7
0026
ffe3
ffee
fff9
0032
fff0
ffed
ffeb
ffe7
001b
ffb0
0030
ffab
ffd1
fff7
0002
0007
0005
005f
fff9
001d
0021
0023
ffe6
ffe6
ffe5
ffef
001c
001c
ffd9
0002
0032
ffe2
0000
fffb
0004
000c
0008
ffeb
fffb
ffe9
0022
ffc7
001d
ffc8
fffa
ffd6
0007
fff0
000f
fffb
fff0
ffee
0002
fff2
0000
ffe5
0002
ffe4
ffff
fffd
ffcf
ffdf
fffc
002b
ffd6
fff9
ffcf
001c
0013
ffe8
ffdc
0002
001c
fff6
0006
ffe5
ffe3
fff3
0012
fff6
ffec
ffed
ffee
ffd5
0008
0000
0033
001b
ff95
ffd2
0062
0016
0021
fff1
000a
0028
001a
0024
fff4
fff5
ffff
000f
fff1
0036
0001
ffe2
ffd8
0025
0015
ffef
fffd
0018
fffa
0011
0020
fffa
000b
ffdd
fff8
ffb9
005c
0027
0022
ffe8
0010
0024
0005
0018
fffc
ffcf
0021
000f
000a
0012
0012
fff3
fff4
fffb
0012
ffdf
ffe4
0006
0000
002a
ffe4
000c
000e
000f
ffe6
0001
0007
0012
000d
ffec
0014
ffdd
fff0
ffff
0008
0009
ffc9
fff7
000e
fff6
fff9
ffef
ffd9
ffe7
0043
fffc
0000
0017
001c
0003
fff0
001e
000a
ffec
fff0
fffe
0003
0004
ffea
ffd6
001a
001e
0032
0005
000e
ffee
0033
ffdc
0036
0010
fff1
0000
000a
000b
ffdc
003f
ff98
0033
0005
0014
ffd5
ffed
ffc1
0034
ffef
001b
001f
ffce
0000
fff5
fffb
ffee
0026
000e
002f
0025
0007
fff5
fffd
fff1
000e
ffe8
0052
fffe
000d
ffe2
0006
0027
ffd0
003a
ffe9
0010
0009
fffb
000b
ffef
0027
0009
0018
000a
fff6
002f
ffeb
ffcb
fffa
fff7
0003
001a
0019
fff3
ffe9
0006
ffda
ffe0
0000
ffd3
000c
000c
0003
0003
ffc4
000c
000a
000a
fffe
fff8
0010
0042
0004
ffe0
0007
0007
0006
000c
0032
ffe9
0024
0013
0008
0040
0010
005d
0018
0041
ffe9
003e
fffb
0000
ffe7
fff6
ffdc
0015
000f
002b
002f
000b
0005
0014
fff3
001a
0001
fff7
ffe3
fffe
0016
000a
000c
0008
ffdd
ffe9
fffe
001a
0004
0016
fff1
0007
0002
0019
001a
ffed
0004
0021
ffd6
0013
fff4
0022
fffe
0025
fff0
fff7
fff0
ffe5
000c
0025
0020
001c
fff7
ffe6
ffd3
fff2
000c
0019
001a
003a
fff2
ffee
0017
0011
fff5
0008
fff9
fff1
0002
0007
ffee
fff0
fffb
fffa
fffe
ffe7
000c
000f
fffc
0013
000d
ffff
0000
ffd7
ffea
fffc
fff3
0005
0004
fff7
ffee
0000
ffff
fffe
0002
fff6
0008
0000
0022
fffc
0016
000d
000a
fffe
0005
fff5
fff7
ffdd
0008
0000
0025
fffd
001c
0011
0023
000b
000c
000b
fff7
0013
ffee
ffdf
fff6
0006
fffc
ffff
0002
000f
0003
0006
fff8
0033
0002
fffa
fffd
fff0
fffd
ffef
0009
ffed
fffe
ffeb
0004
ffe9
0006
0002
ffec
0002
fff0
ffff
000b
fffc
0007
0001
fff8
0018
ffe0
0003
0015
0012
000d
0014
002a
0026
0007
0006
000c
0007
ffe6
ffe5
fff7
ffda
fff8
ffe2
fff9
0009
ffff
ffee
ffd2
ffeb
0002
fffd
001f
0013
000f
000a
ffe8
0019
fffd
fff3
000c
ffe8
0006
ffe5
ffed
ffe6
0001
0001
fff9
ffdd
0001
fff9
0005
0003
0015
0008
0005
0008
0005
fff3
fff9
ffd8
0008
0001
fff2
000f
000a
000d
fffd
0007
ffe8
ffed
0000
0007
fff9
000a
0040
0023
ffe2
fff3
0021
0019
000a
000a
ffed
0021
fffd
ffdd
0001
ffef
0006
000a
0010
0038
ffe4
fff4
ffe6
ffe6
fff6
fffe
ffe8
0025
ffd5
fff7
0012
000e
ffed
ffd2
0008
000d
fffe
0037
ffef
ffd1
000f
0025
fff9
fff3
fffb
0009
fff2
0018
ffea
ffbf
0007
fff8
0015
002a
ffc9
0003
fffb
ffee
001d
0005
ffc4
000d
ffe2
fff7
ffe9
000d
0010
fff7
0006
001e
ffe5
000d
fff6
ffdc
fffa
001a
0038
ffe6
0030
ffdd
0024
0032
001c
ffd3
ffef
0004
0006
ffff
ffe6
ffd3
ffdb
0003
0001
ffd1
fffb
001c
0014
001b
0010
0017
fffe
0015
0002
0000
ffff
fffa
fffc
0002
ffe3
0029
0011
0009
0005
0002
ffd6
000d
fffe
ffdb
0014
0035
0007
fff5
ffee
0013
0021
fff6
0013
ffce
0030
0009
fffb
004f
000a
0022
ffda
001b
ffd4
000b
0014
fff1
001d
0018
ffd6
000e
ffc9
000a
ffe7
fffb
fffd
000f
0014
0010
ffc7
fffc
ffcc
ffd8
000e
fffd
ffef
003f
ffe8
fffe
fffd
ffff
fffe
003f
ffef
ffe3
fffb
ffd4
001d
ffff
0007
0017
fffe
0004
0002
ff6d
0002
0023
ffef
0017
ffdb
0044
ffd8
0013
fffb
000e
0002
fffd
0005
ffea
000f
fffc
0034
fffc
0016
ffe5
002a
0057
0001
0013
ffee
ffcd
0004
0018
0008
fff0
fff8
001b
fff1
005a
0034
0018
fff9
ffe6
ffe3
0005
0006
000d
0001
fffd
0010
fff7
0006
0007
ffe1
0017
ffe3
fff6
0014
001d
0004
0008
fffc
0005
000d
000c
0006
ffdc
001e
fff1
ffed
ffea
fff7
0008
0020
0015
0001
0008
0031
ffcc
0002
ffe4
0017
0009
002e
ffef
ffe5
001c
ffc1
0002
fff8
0004
ffe5
000a
0022
ffe1
ffc4
fffa
fff8
001e
002a
ffd1
0010
0005
fff9
0007
fff9
ffe6
ffbf
ffe1
0047
0011
fff2
fff1
001a
ffe0
ffff
ffff
0048
001b
0006
001d
001b
0015
000f
0009
000c
ffae
fffe
0024
0016
0007
ffea
0014
001a
fffe
0014
ffe5
0016
002f
ffd9
0020
0018
0001
0000
ffe4
ffc0
fffa
0028
fffd
ffc9
ffea
002e
fff4
0026
000e
ffeb
ffff
fff5
000a
001b
0029
ffe8
ffef
ffeb
ffec
000a
000e
fff2
ffeb
000f
ffe4
ffbe
ffe4
0075
0003
001f
0017
fffa
ffd3
0022
ffed
0012
ffe7
0000
000b
001a
0033
fff4
ffda
001b
ffd9
fffc
0015
ffd2
0000
0003
fff5
fff9
fff4
000c
fffc
000f
ffe6
ffcf
ffe6
0022
ffd5
ffff
fff9
0004
0020
ffea
0018
fff3
ffdd
0002
002c
fffa
ffdd
002a
000a
0003
0028
0009
002d
0000
0029
0016
ffec
ffef
0013
fffe
fff9
0047
000b
0002
0004
ffff
0006
0000
0000
0000
0000
0000
0000
0000
0000
0000
0000
0000
0000
0000
0000
0000
0000
0000
0000
0000
0000
0000
0000
0000
0000
0000
0000
0000
0000
0000
0000
0000
0000
0000
0000
0000
0000
0000
0000
0000
0000
0000
0000
0000
0000
0000
0000
0000
0000
0000
0000
0000
0000
0000
0000
0000
0000
0000
0000
0000
0000
0000
0000
0000
0000
0000
0000
0000
0000
0000
0000
0000
0000
0000
0000
0000
0000
0000
0000
0000
0000
0000
0000
0000
0000
0000
0000
0000
0000
0000
0000
0000
0000
0000
0000
0000
0000
0000
0000
0000
0000
0000
0000
0000
0000
0000
0000
0000
0000
0000
0000
0000
0000
0000
0000
0000
0000
0000
0000
0000
0000
0000
0000
0000
0000
0000
0000
0000
0000
0000
0000
0000
0000
0000
0000
0000
0000
0000
0000
0000
0000
0000
0000
0000
0000
0000
0000
0000
0000
0000
0000
0000
0000
0000
0000
0000
0000
0000
0000
0000
0000
0000
0000
0000
0000
0000
0000
0000
0000
0000
0000
0000
0000
0000
0000
0000
0000
0000
0000
0000
0000
0000
0000
0000
0000
0000
0000
0000
0000
0000
0000
0000
0000
0014
ffff
0017
fff8
fff0
0028
ffec
fff2
0022
fff2
fffc
ffea
0008
ffe1
001a
0009
fff5
000f
ffee
0001
0039
0020
0009
ffea
fffb
001a
fffa
fff6
0012
0012
000c
fff7
fffa
fff2
0028
fff1
003d
fffc
004f
001c
ffe6
0014
fff4
0035
0011
ffc7
0011
ffca
ffe0
ffec
ffd8
001d
001f
001c
fffe
001e
0003
ffe9
0005
0014
0021
ffcc
0047
002d
ffe3
ffd7
ffeb
002e
fff0
ffc0
0001
002b
0003
0029
fff3
0050
fffb
ffd5
fff8
ffb1
0016
001f
0026
ffe3
0022
0007
0008
fff7
0007
fff5
0000
ffe3
0012
ffe9
0010
001f
fff5
fff3
ffff
ffec
fff1
000f
fff2
ffee
0014
fff1
0015
fffa
0019
fffc
ffe8
fff7
0029
001a
fff3
fff3
0043
ffdb
fff1
ffd7
0008
ffe8
fff8
ffe5
ffbf
0003
0035
000b
001c
0021
fffd
fffd
0018
ffdb
fff6
ffd4
fff6
0004
0013
000a
0016
0009
fff9
ffef
fff9
001b
0005
001e
000f
0023
ffea
ffb6
0007
000d
0000
003d
0021
fff1
ffe6
ffd0
0014
fff6
002f
001b
ffe8
0012
000b
0004
fff4
0013
fff6
ffdf
000a
000d
000d
0025
fff4
0003
fffb
fff3
0009
ffe1
0031
0018
ffea
000c
0001
0013
001a
0029
ffcd
0026
