ffea
000f
fff0
ffee
ffdc
0000
002a
001a
ffcf
0004
0017
0006
001f
0000
0007
fffa
ffec
ffff
fff3
0027
002f
0013
ffe5
fffd
0001
0002
ffdb
ffae
0000
fff1
fffc
0000
0017
000c
0029
001c
ffbb
0000
0020
fff2
0008
fffd
fff8
0004
ffd5
fffe
ffee
0000
fffd
0000
fff4
003b
fff2
002b
ffef
ffe0
0002
0025
ffc2
001d
0007
ffd7
0000
fffe
0029
0016
001e
001d
ffe0
0000
ffbc
0005
ffff
000a
fff8
0000
ffd9
0000
001a
fffe
0000
ffff
ffd4
0026
0029
0023
ffe0
ffde
0000
0008
000f
ffc7
0000
ffb7
0000
0001
ffca
ffda
fffe
001e
fff9
0000
0011
ffda
001d
0028
ffda
0004
fff1
0003
ffdb
0002
fffc
fffb
0026
000b
0019
ffef
0019
0025
fffd
ffb2
fff7
0003
fff7
0017
0000
0000
ffdd
0016
fff1
ffe5
000d
0000
ffe5
ffe9
ffff
0023
fff6
0000
001b
ffe5
ffff
0003
0003
0003
ffcf
001f
fff4
ffb8
001e
0029
ffff
0014
fff2
0020
fffb
ffd2
0000
0000
ffc2
ffe8
001a
001d
ffb7
0000
0011
fffd
ffd9
0025
ffd6
0002
ffd4
fff9
0002
0000
0009
0000
fff1
001e
ffd0
ffe8
0018
0024
0000
001f
0001
0005
0000
002c
0000
0000
ffee
fffb
0018
001d
000a
0001
0022
000c
ffda
002a
002d
0004
ffde
0003
ffd7
0000
ffe7
0001
ffe4
ffdd
ffee
000d
ffe6
fff7
0000
ffe8
0010
ffbd
ffff
001c
0000
0000
0015
ffdf
ffec
fff7
fff8
fffc
ffbb
ffe7
000d
0003
ffe5
0002
0019
fffc
001d
0000
0011
0003
0027
fffc
0021
ffe4
001b
0026
0000
ffcf
0006
fff0
0005
ffdd
0001
0000
0023
ffff
fff8
0002
000e
0000
0016
0000
ffdc
0031
ffe8
0001
0006
fff9
0009
0000
fffb
0000
ffee
0009
ffdf
ffda
001b
ffdd
fffe
ffd2
0012
ffb6
0001
0017
0000
0000
ffed
fff1
fff9
ffc8
0014
0000
001f
ffe7
fff9
ffee
ffea
0002
0009
0000
ffe1
0000
fffd
0000
001e
0028
ffe7
ffdc
0015
002a
0000
fff0
ffc9
001e
0000
0016
fffd
0000
0007
fffa
ffe1
ffee
0021
0002
0001
fff3
0022
fff2
002e
0005
ffc0
fffe
ffd7
0000
0015
fff0
0028
0018
000e
ffdf
ffbe
fff5
0000
0004
0004
0005
fffc
0014
0000
0000
ffc9
ffdb
ffd8
001a
ffec
0000
ffbf
fffc
0017
fff1
fff4
0000
0017
0000
0019
0000
fff7
0000
001e
0010
0033
ffd0
0023
ffc0
0000
ffc9
ffd6
ffc4
0005
0020
0000
0000
ffd3
ffdc
ffea
fff5
ffc8
ffff
001f
000b
fff2
fff2
0034
fffc
ffbe
0000
0002
0003
0015
fffd
ffd9
ffc2
000a
002d
ffc1
ffd2
0000
001e
fff3
000b
fffc
0015
0000
0000
0005
0004
ffe1
0022
0007
0000
fff6
ffd8
000f
002e
0011
0000
000a
0000
ffec
0000
0004
000a
ffcb
ffe9
000d
0016
ffc9
001f
ffff
000a
000f
fff7
0003
0010
0001
0000
000f
0000
ffec
0008
ffda
0000
fff5
000c
ffc8
ffdb
0028
0003
001b
0001
002e
0000
fff2
0004
ffd1
ffee
ffe9
fff3
ffe5
0021
0000
0033
ffc7
ffee
fffb
ffbe
0000
fff4
000f
ffeb
fff2
ffea
0023
0000
ffc7
fff6
0020
0031
ffe5
0000
ffc9
0000
fffd
0000
0002
0001
fffd
002b
ffca
ffdf
ffc5
0019
0000
ffb6
000c
0004
ffff
000f
0000
0000
000b
0019
ffec
0005
ffce
0003
ffdf
ffe3
ffed
000f
ffe1
0002
ffef
fffe
ffc9
0003
000e
0001
0011
ffcf
ffd0
ffd9
ffd3
ffdf
0000
ffed
fff8
ffe0
0005
ffef
0001
0002
ffe9
0027
0015
ffde
fff4
0000
fff3
ffe1
ffea
ffda
ffc5
0005
ffdb
0000
ffec
0000
fff0
0000
ffcf
ffcc
ffd2
ffcc
000f
ffff
0004
ffc9
ffd3
fff5
0000
ffe0
0000
fffd
