ff9c
ff8d
ffac
fff7
ffa0
003f
ffd7
0000
0035
ff9d
ff5d
ff6f
0000
ffbb
fff1
0038
0000
001d
ffa5
0028
0035
ffb8
0000
ff7a
ff9a
ff8c
ff8b
0019
001c
0016
0000
002b
ffb3
fff5
0024
0004
ffb6
003c
ff99
0000
ff8c
ffc3
ff62
fff4
ffff
ffb9
ffc2
002e
0000
001a
0024
ffbb
0020
0028
0000
000d
0015
ff89
0009
0006
0012
0023
0000
0028
ff84
0036
ff59
0027
ffa7
ffbb
001f
0000
ff83
0030
ff75
ffad
0000
ff78
ffb2
0027
0000
002a
ffa5
ffaf
ff8c
ff7b
0000
ff90
0035
ff75
0028
ffd5
ff96
ff7d
0000
ffbb
ff7e
ffc0
0025
ff8b
ffba
ffc9
0019
0000
ff89
0021
ff83
0023
0000
ff73
0024
ffd8
0000
0021
0018
002a
ff9e
ffe1
0000
ff9d
0008
0018
001f
ffd1
ffac
0012
0000
0024
ffa1
001a
ff84
001b
ff96
003a
000d
0000
002d
ff81
fffe
0012
0000
0024
ff8f
001a
0000
ff9f
0033
002c
ff8b
001f
0000
002d
ff8d
ff96
ffb3
ffcb
ff79
ff88
0000
0014
ff6a
ff7e
001e
ff57
ffa1
002e
ffbe
0000
ffc8
ff78
ff6a
ff7d
ffff
0028
0026
ffcb
0000
0007
002f
0022
001b
0028
0000
0028
ffc0
0013
ffac
0013
0018
0017
0000
0005
0012
0021
0015
0013
ff9c
ff9f
000b
0000
001c
0021
ff75
ff66
0000
001d
ff70
0017
0000
0019
0038
0023
ff86
ff90
0000
ff85
ff92
ff90
0018
ffd4
0006
ff8e
0000
001f
ff64
ff7f
ff43
ffa9
ffa7
ffcc
0012
0000
0007
ff99
ff9b
ff7d
0000
002a
0025
ff84
0000
0026
0039
0033
ff82
ff85
0000
ff95
0025
ff72
0022
0013
fffc
ff68
0000
0028
001e
0015
002f
0019
0007
ffc5
ff9d
0000
ff8c
ffd0
001a
ffc6
0001
0022
ffd0
ff8c
0000
ff9f
ffba
ff63
000f
ffbd
0000
ffcb
0024
0024
001d
ffe5
001a
ffba
0000
ff7b
001d
0023
0023
ffb6
000e
ffc5
ffcd
0000
0011
001b
ffef
0014
0000
ffdb
0020
002c
0000
ff99
0017
0019
0022
ffbf
0000
0020
ffa2
fff5
ffc2
0008
0013
0012
0000
ffc5
0020
002a
fff1
001e
0026
ffff
ffe4
0000
ffbc
ffcf
0011
ffdb
ffff
ffc0
002b
002d
0000
ff96
ffa9
ffd1
fffe
0020
0000
0024
fff6
fff9
0017
ffe1
ffbe
ffd3
0000
ffd3
0017
ffef
ffd7
ffbd
0028
fffa
0016
0000
0024
ffe7
000f
0022
0008
ffd9
002a
0025
0000
ffe0
ffa1
ffde
0003
ffdf
0000
ffda
0024
0027
ffbd
fff9
ffc2
ffda
0000
fff7
0014
ffcf
001b
0018
fff0
fff5
ff8e
0000
ffd2
001d
0014
0020
fffa
ffe6
ffb2
ffbe
0000
ffa1
ffac
0004
002b
001f
0000
002c
ffb3
0023
ffd6
ffec
ffba
0021
0000
0024
fff3
ffea
ffe6
ffb5
001f
ffe9
ffe6
0000
0025
0023
0010
0028
0000
002d
ffd2
ffc2
0000
0019
0006
ffd9
ffc6
fffc
0000
ffc7
0023
0025
fff1
fff3
0014
ffcf
0000
ffe3
ffbd
0027
002a
0021
ffb6
ffa8
ffa8
0000
fff8
0026
0018
0020
fffe
0036
ffc4
ffa7
0000
ffb8
ffc3
ffb7
ffc0
0030
0000
ffcd
0000
ffdc
ffc2
ffe4
001a
ff9e
0000
ff96
001e
ffdb
ffcb
ffeb
0023
002f
ffb7
0000
ffb7
ffe2
0010
ffda
ffff
ffc4
0020
0023
0000
ffb7
ffc5
0020
ffe4
ffe6
0000
fffa
ffb2
0024
0005
0016
0007
001c
0000
0024
fff9
0022
001a
ffc9
0023
002f
ffc4
0000
0011
ffec
000c
0016
fffe
0022
0025
ffdc
0000
ffb5
ffb8
ffa8
0028
0022
0000
ffe7
0021
0019
ffc0
ffe7
0008
001d
0000
ffb1
0019
ffc2
ffed
ffd6
001a
002e
ffc4
0000
0019
ffdc
0016
001f
ffff
0026
ffc8
ffc0
0000
ffa4
ff92
001b
0024
ffc7
0000
0024
0018
0024
ffd1
000f
ffc6
0011
0000
001f
